<unk>	0.0
<s>	0.0
</s>	0.0
s	-2.8929429054260254
▁the	-2.8938803672790527
▁of	-3.614269971847534
▁and	-3.732954502105713
▁to	-3.8653416633605957
▁a	-3.901761531829834
▁in	-4.065186977386475
▁is	-4.609673976898193
'	-4.724979400634766
▁that	-4.731751918792725
ing	-4.807456970214844
ed	-4.846102714538574
▁it	-4.993454456329346
▁was	-4.997828006744385
▁for	-5.012603759765625
d	-5.0880303382873535
t	-5.1707611083984375
▁as	-5.196126461029053
▁i	-5.240584373474121
▁with	-5.253904819488525
▁by	-5.323151588439941
▁on	-5.369815826416016
n	-5.371989727020264
▁are	-5.373232364654541
▁be	-5.4214558601379395
▁this	-5.524980545043945
ly	-5.588191986083984
▁he	-5.609180927276611
▁from	-5.6581525802612305
▁or	-5.685953140258789
▁an	-5.720309257507324
y	-5.758361339569092
▁you	-5.777543544769287
▁have	-5.795022964477539
▁at	-5.807641506195068
▁not	-5.813630104064941
▁his	-5.844303607940674
e	-5.870767116546631
▁but	-5.887551307678223
▁were	-5.890486717224121
er	-5.896330833435059
re	-5.949429988861084
▁they	-5.96431303024292
m	-6.000251293182373
▁which	-6.024063587188721
▁so	-6.035508632659912
▁we	-6.040400981903076
r	-6.0471577644348145
al	-6.068925380706787
▁also	-6.085592746734619
▁can	-6.109583854675293
▁their	-6.120363235473633
es	-6.201117992401123
▁has	-6.211561679840088
▁one	-6.212164402008057
▁had	-6.232576847076416
▁other	-6.304232120513916
c	-6.351459980010986
▁all	-6.362621784210205
▁there	-6.381425857543945
o	-6.389712333679199
▁been	-6.441919803619385
▁some	-6.480471611022949
▁more	-6.5030927658081055
▁these	-6.551418781280518
▁who	-6.55366849899292
▁do	-6.560266494750977
ion	-6.566353797912598
▁re	-6.576040267944336
i	-6.588984489440918
▁when	-6.60787296295166
l	-6.613728046417236
▁time	-6.6159162521362305
▁would	-6.617659568786621
▁many	-6.622203350067139
▁what	-6.639910697937012
▁new	-6.679034233093262
▁into	-6.68550443649292
▁most	-6.7086501121521
in	-6.712881565093994
▁people	-6.718321323394775
a	-6.721860885620117
▁about	-6.723628997802734
le	-6.736359119415283
▁out	-6.758690357208252
ation	-6.766308784484863
▁its	-6.7767229080200195
g	-6.7942023277282715
k	-6.795854091644287
p	-6.798129558563232
▁if	-6.804765701293945
▁such	-6.809995174407959
▁de	-6.810140132904053
▁used	-6.815576076507568
▁no	-6.823542594909668
▁first	-6.832406997680664
▁two	-6.837359428405762
or	-6.855301856994629
ve	-6.856861114501953
an	-6.859160423278809
▁up	-6.861629962921143
▁her	-6.862977504730225
▁because	-6.86550760269165
ic	-6.868441581726074
▁like	-6.87189245223999
ll	-6.8738203048706055
b	-6.885825157165527
▁after	-6.904768943786621
▁may	-6.923788070678711
▁over	-6.938168048858643
▁city	-6.939070701599121
▁just	-6.959596157073975
ers	-6.963631629943848
en	-6.964931488037109
u	-6.965753555297852
▁than	-6.97172212600708
▁me	-6.976988315582275
▁she	-7.007565975189209
w	-7.0102081298828125
▁only	-7.016708850860596
▁them	-7.034066200256348
▁part	-7.040063381195068
▁where	-7.041429042816162
ne	-7.04503059387207
▁during	-7.074797630310059
ck	-7.075833320617676
th	-7.076266765594482
▁use	-7.099850177764893
li	-7.100571632385254
te	-7.113471984863281
▁well	-7.120128631591797
it	-7.127230644226074
▁my	-7.127448081970215
▁al	-7.127593994140625
ch	-7.132104873657227
▁war	-7.1395769119262695
▁through	-7.1432976722717285
▁could	-7.145900726318359
▁un	-7.147820472717285
ity	-7.1613993644714355
▁will	-7.163852214813232
f	-7.168396949768066
on	-7.168871879577637
ta	-7.17195987701416
▁very	-7.172735214233398
▁between	-7.186294078826904
us	-7.187113285064697
▁county	-7.197235107421875
▁world	-7.198296546936035
▁him	-7.212503433227539
▁state	-7.212521553039551
▁did	-7.214244365692139
▁both	-7.214779853820801
ra	-7.224178314208984
ment	-7.231085300445557
ri	-7.2362380027771
ar	-7.24852180480957
▁while	-7.249967098236084
▁how	-7.252824783325195
▁now	-7.254605293273926
il	-7.26037073135376
▁con	-7.263547420501709
▁work	-7.267043590545654
▁area	-7.275521278381348
x	-7.278890609741211
na	-7.283257484436035
ro	-7.284975528717041
et	-7.286999702453613
la	-7.287356853485107
ive	-7.288681507110596
▁s	-7.288775444030762
ia	-7.289072036743164
▁us	-7.291759490966797
ry	-7.2984747886657715
▁being	-7.308364391326904
h	-7.309741020202637
▁then	-7.3117756843566895
▁however	-7.318432331085205
▁any	-7.320798873901367
ce	-7.3257670402526855
ian	-7.328099727630615
el	-7.331074237823486
▁made	-7.344320297241211
▁different	-7.34973669052124
▁school	-7.354772567749023
▁o	-7.362836837768555
v	-7.366902828216553
ma	-7.367684841156006
ul	-7.367720127105713
able	-7.371296405792236
▁la	-7.380608558654785
▁co	-7.381560802459717
▁those	-7.384390354156494
▁think	-7.387694358825684
ate	-7.388361930847168
▁d	-7.3898091316223145
▁often	-7.3965983390808105
▁way	-7.397619247436523
▁system	-7.40227746963501
de	-7.403341770172119
▁years	-7.412719249725342
▁river	-7.414099216461182
ism	-7.417577266693115
▁much	-7.417637348175049
ist	-7.419595718383789
▁town	-7.423177242279053
▁under	-7.423701286315918
▁even	-7.437816619873047
▁e	-7.443404674530029
▁each	-7.444023609161377
ton	-7.4508280754089355
ent	-7.4537272453308105
▁government	-7.460466384887695
▁later	-7.472869873046875
▁water	-7.472910404205322
ur	-7.482582092285156
tic	-7.48794412612915
▁number	-7.497107982635498
▁right	-7.497316360473633
▁public	-7.4988112449646
▁several	-7.5078935623168945
▁found	-7.5099687576293945
▁high	-7.510147571563721
▁go	-7.510575771331787
ol	-7.512697219848633
▁make	-7.514759063720703
st	-7.5293803215026855
▁get	-7.532402992248535
ke	-7.532949924468994
▁back	-7.535064697265625
▁same	-7.5359578132629395
▁know	-7.538662910461426
▁going	-7.54276704788208
▁before	-7.555993556976318
ted	-7.556692123413086
▁your	-7.560891151428223
▁p	-7.560903072357178
▁life	-7.562436580657959
▁ma	-7.573243141174316
ated	-7.5760626792907715
vi	-7.578254699707031
age	-7.580964088439941
▁end	-7.584524154663086
▁see	-7.585176467895508
▁our	-7.58776330947876
▁don	-7.589415073394775
▁known	-7.591546535491943
co	-7.5921149253845215
lo	-7.593023300170898
▁three	-7.599142074584961
▁car	-7.6052045822143555
▁home	-7.627985954284668
▁le	-7.628812789916992
se	-7.630196571350098
▁north	-7.6306047439575195
▁ro	-7.63987398147583
▁point	-7.648452281951904
▁large	-7.650524616241455
▁land	-7.6605706214904785
▁really	-7.661083221435547
▁power	-7.667451858520508
▁within	-7.677143096923828
▁mo	-7.67826509475708
▁became	-7.679040908813477
ine	-7.6791839599609375
▁south	-7.679290294647217
▁ra	-7.693099021911621
land	-7.699100494384766
at	-7.701586723327637
▁states	-7.702969551086426
to	-7.7089667320251465
▁local	-7.7112579345703125
▁including	-7.7123494148254395
z	-7.713181018829346
▁human	-7.715192794799805
▁ba	-7.716868877410889
▁ca	-7.718225002288818
is	-7.719582557678223
▁own	-7.723665714263916
ter	-7.727049350738525
ti	-7.728168487548828
▁name	-7.731863975524902
▁form	-7.732483386993408
▁national	-7.732973098754883
▁bo	-7.7358269691467285
▁still	-7.745563983917236
▁long	-7.7462992668151855
nt	-7.7466912269592285
▁good	-7.746949195861816
▁small	-7.7528181076049805
▁dis	-7.755114555358887
▁ta	-7.756577968597412
▁pre	-7.756588459014893
▁pro	-7.7590155601501465
me	-7.759054660797119
▁important	-7.7593092918396
▁year	-7.760275840759277
▁c	-7.767592430114746
though	-7.773470878601074
▁around	-7.785882472991943
ng	-7.786361217498779
▁located	-7.787467956542969
sh	-7.788552761077881
▁down	-7.789417743682861
ous	-7.789758205413818
ant	-7.7900896072387695
▁man	-7.793349742889404
ci	-7.79710054397583
▁great	-7.7998809814453125
▁does	-7.800298690795898
▁need	-7.80106782913208
▁se	-7.803647518157959
um	-7.808168888092041
man	-7.819046497344971
ph	-7.819698333740234
▁take	-7.819828510284424
▁support	-7.826295375823975
no	-7.82676887512207
ies	-7.8295063972473145
ge	-7.833065986633301
▁due	-7.833255767822266
▁united	-7.834394454956055
▁k	-7.836615562438965
▁west	-7.842321395874023
▁day	-7.843232154846191
▁another	-7.8441596031188965
ct	-7.851937294006348
▁want	-7.854827880859375
▁american	-7.855742931365967
▁against	-7.868191242218018
▁f	-7.872009754180908
▁film	-7.882867336273193
▁place	-7.885207176208496
nd	-7.886577129364014
ating	-7.887845516204834
mp	-7.8888444900512695
▁become	-7.891050338745117
id	-7.8934431076049805
▁early	-7.896125793457031
va	-7.897047996520996
▁g	-7.898743629455566
▁set	-7.899475574493408
▁few	-7.902256011962891
ary	-7.906121730804443
▁li	-7.906878471374512
▁called	-7.911293029785156
▁park	-7.913140773773193
▁sa	-7.913515567779541
▁example	-7.915236473083496
▁things	-7.9218831062316895
▁since	-7.922297477722168
▁house	-7.9237189292907715
ba	-7.931642055511475
ca	-7.93874979019165
po	-7.947085380554199
▁process	-7.948489189147949
im	-7.953005313873291
▁second	-7.953030586242676
▁along	-7.953699588775635
▁ha	-7.95611047744751
am	-7.956998348236084
▁east	-7.96222448348999
▁major	-7.963891506195068
da	-7.96782922744751
▁common	-7.969142913818359
ni	-7.971073150634766
▁period	-7.9746880531311035
▁lo	-7.976583480834961
▁should	-7.976883888244629
▁ti	-7.9782023429870605
▁du	-7.980984687805176
▁group	-7.982168674468994
▁na	-7.982850074768066
▁art	-7.983055591583252
▁country	-7.983551025390625
▁region	-7.984224796295166
▁side	-7.984493255615234
▁di	-7.985174179077148
ting	-7.988193511962891
▁lot	-7.989596843719482
est	-7.993969917297363
▁order	-7.996800422668457
un	-7.99838399887085
be	-8.001811981201172
▁community	-8.002254486083984
ty	-8.002557754516602
pe	-8.01175308227539
ness	-8.01216983795166
▁family	-8.01966667175293
▁little	-8.020467758178711
▁control	-8.021190643310547
▁social	-8.021281242370605
▁court	-8.029507637023926
min	-8.034391403198242
▁play	-8.03491497039795
▁near	-8.039697647094727
▁vi	-8.04118824005127
▁general	-8.042974472045898
▁per	-8.047579765319824
▁here	-8.052203178405762
son	-8.054215431213379
▁help	-8.054277420043945
di	-8.054346084594727
▁show	-8.055908203125
tion	-8.057271003723145
▁pa	-8.05899715423584
▁using	-8.06018352508545
ha	-8.06039810180664
▁line	-8.0626859664917
▁center	-8.063222885131836
ful	-8.063346862792969
▁among	-8.067426681518555
▁come	-8.072324752807617
▁pi	-8.072495460510254
▁ne	-8.073375701904297
▁hand	-8.073661804199219
▁off	-8.076115608215332
▁look	-8.076390266418457
▁development	-8.07656478881836
ance	-8.076577186584473
▁less	-8.0772705078125
as	-8.077695846557617
▁say	-8.081183433532715
▁four	-8.083358764648438
▁music	-8.084033966064453
bo	-8.086942672729492
▁sub	-8.089712142944336
ite	-8.091078758239746
▁include	-8.09350872039795
ence	-8.094578742980957
▁without	-8.095115661621094
▁main	-8.095256805419922
▁actually	-8.09676742553711
▁political	-8.0988130569458
▁ri	-8.100762367248535
▁every	-8.102705001831055
om	-8.103875160217285
▁light	-8.10521411895752
▁something	-8.106111526489258
ver	-8.107396125793457
ga	-8.109167098999023
ff	-8.109187126159668
▁air	-8.12643814086914
▁similar	-8.127577781677246
▁king	-8.128131866455078
▁field	-8.131135940551758
lu	-8.131426811218262
bi	-8.132902145385742
ling	-8.133097648620605
▁sea	-8.139071464538574
ut	-8.145767211914062
mo	-8.152748107910156
mb	-8.153079986572266
▁various	-8.153707504272461
▁kind	-8.155720710754395
▁mar	-8.15618896484375
▁law	-8.15620231628418
▁district	-8.162303924560547
go	-8.165395736694336
▁population	-8.168943405151367
▁last	-8.170220375061035
▁usually	-8.172078132629395
▁men	-8.173836708068848
▁sta	-8.173852920532227
▁based	-8.1761474609375
▁act	-8.176615715026855
▁change	-8.1771821975708
▁history	-8.177567481994629
▁head	-8.180692672729492
▁design	-8.180694580078125
▁team	-8.182514190673828
▁though	-8.182519912719727
▁body	-8.187915802001953
▁considered	-8.188173294067383
▁po	-8.191122055053711
ized	-8.19483757019043
▁b	-8.197738647460938
ther	-8.198369026184082
▁mu	-8.198653221130371
▁comp	-8.198699951171875
ard	-8.201560974121094
tra	-8.201931953430176
▁modern	-8.202527046203613
▁role	-8.204100608825684
▁never	-8.21008586883545
▁en	-8.210444450378418
▁church	-8.210490226745605
▁yeah	-8.211089134216309
▁bar	-8.2119722366333
ide	-8.21802043914795
▁ex	-8.218173027038574
▁give	-8.218708992004395
▁gra	-8.21971607208252
▁central	-8.22905158996582
▁view	-8.22913646697998
▁members	-8.229403495788574
ster	-8.23047161102295
▁said	-8.23463249206543
mon	-8.23507022857666
▁bi	-8.235485076904297
▁areas	-8.238258361816406
▁free	-8.240641593933105
ot	-8.244100570678711
▁mi	-8.24576187133789
▁language	-8.247119903564453
▁imp	-8.249119758605957
▁women	-8.250077247619629
▁military	-8.252203941345215
▁left	-8.255131721496582
▁result	-8.255611419677734
▁got	-8.255622863769531
rs	-8.256394386291504
▁death	-8.259488105773926
▁space	-8.260126113891602
ac	-8.260324478149414
▁person	-8.264519691467285
▁roman	-8.264676094055176
way	-8.265941619873047
▁thing	-8.26875114440918
▁british	-8.269030570983887
che	-8.26936149597168
▁economic	-8.270503044128418
▁lake	-8.27064037322998
ho	-8.272903442382812
ities	-8.27564525604248
▁black	-8.276215553283691
▁given	-8.281919479370117
▁today	-8.28226089477539
pa	-8.282790184020996
ward	-8.282947540283203
wa	-8.287897109985352
ial	-8.288254737854004
▁came	-8.288681983947754
▁took	-8.29050064086914
▁fire	-8.291446685791016
▁led	-8.295401573181152
mi	-8.29721736907959
▁able	-8.298333168029785
▁service	-8.301471710205078
▁children	-8.301905632019043
▁run	-8.305663108825684
▁pe	-8.306535720825195
▁having	-8.307414054870605
▁position	-8.308258056640625
der	-8.312849998474121
▁next	-8.3134183883667
▁cause	-8.31531810760498
▁university	-8.316630363464355
▁food	-8.31909465789795
▁thought	-8.321310997009277
▁site	-8.325057029724121
▁sometimes	-8.327800750732422
▁case	-8.328213691711426
do	-8.332454681396484
▁must	-8.334394454956055
ations	-8.335521697998047
▁natural	-8.335750579833984
ish	-8.335983276367188
ir	-8.337247848510742
ator	-8.34004020690918
▁put	-8.34206771850586
▁reason	-8.34393310546875
▁	-8.345108985900879
▁began	-8.346351623535156
▁level	-8.346986770629883
▁western	-8.347282409667969
▁might	-8.349212646484375
▁white	-8.349649429321289
que	-8.351815223693848
▁building	-8.356107711791992
▁real	-8.356183052062988
▁company	-8.356990814208984
▁generally	-8.358620643615723
▁named	-8.36108112335205
▁market	-8.362229347229004
▁find	-8.363176345825195
▁island	-8.363459587097168
ten	-8.364822387695312
▁international	-8.370430946350098
▁ga	-8.370789527893066
▁ju	-8.3739595413208
he	-8.375089645385742
▁live	-8.376508712768555
▁fact	-8.376858711242676
▁built	-8.377974510192871
▁research	-8.381525039672852
lic	-8.382102966308594
▁once	-8.383418083190918
▁love	-8.3851318359375
▁following	-8.385380744934082
ology	-8.386100769042969
▁u	-8.386187553405762
▁council	-8.386720657348633
▁project	-8.38686466217041
▁open	-8.387126922607422
▁road	-8.389302253723145
▁structure	-8.390978813171387
ad	-8.391239166259766
▁ce	-8.391258239746094
os	-8.39240550994873
▁attack	-8.393014907836914
▁turn	-8.393295288085938
▁ho	-8.393400192260742
▁book	-8.39476490020752
▁old	-8.394768714904785
▁w	-8.395471572875977
ally	-8.398337364196777
▁together	-8.400218963623047
▁let	-8.406394958496094
▁until	-8.406706809997559
▁inter	-8.407236099243164
▁seen	-8.407588005065918
ru	-8.408973693847656
▁possible	-8.409302711486816
▁band	-8.410138130187988
▁game	-8.412668228149414
gu	-8.412923812866211
▁far	-8.413250923156738
ell	-8.413737297058105
▁information	-8.416629791259766
▁model	-8.416900634765625
les	-8.417431831359863
▁rock	-8.417491912841797
▁popular	-8.418774604797363
▁either	-8.420936584472656
▁again	-8.42190933227539
▁allow	-8.422450065612793
con	-8.423988342285156
▁data	-8.424860954284668
▁species	-8.427753448486328
▁further	-8.43028450012207
▁five	-8.430789947509766
▁health	-8.433191299438477
▁fe	-8.433659553527832
▁station	-8.43742561340332
▁best	-8.437759399414062
▁across	-8.438455581665039
▁present	-8.439020156860352
▁range	-8.439238548278809
▁start	-8.439528465270996
▁practice	-8.441113471984863
▁army	-8.44173526763916
▁low	-8.441923141479492
▁rather	-8.444000244140625
▁too	-8.444493293762207
cu	-8.44480037689209
▁provide	-8.448119163513184
▁sha	-8.448166847229004
▁throughout	-8.44913101196289
▁culture	-8.449344635009766
▁em	-8.449944496154785
▁village	-8.451042175292969
▁especially	-8.452433586120605
▁ja	-8.452618598937988
op	-8.453451156616211
▁developed	-8.453577995300293
▁always	-8.454645156860352
▁short	-8.45726490020752
ization	-8.45847225189209
▁why	-8.461298942565918
▁su	-8.461756706237793
▁fi	-8.461790084838867
▁el	-8.46218204498291
▁hu	-8.464357376098633
▁trade	-8.466925621032715
▁hard	-8.467512130737305
▁energy	-8.46762466430664
▁french	-8.470990180969238
▁party	-8.471738815307617
line	-8.472675323486328
ring	-8.477259635925293
▁making	-8.477594375610352
▁office	-8.478225708007812
▁ni	-8.478569030761719
▁original	-8.4794282913208
▁age	-8.481581687927246
▁business	-8.481953620910645
ize	-8.482069969177246
▁red	-8.48303508758545
▁former	-8.48313045501709
▁whe	-8.485991477966309
▁experience	-8.486442565917969
▁te	-8.486924171447754
▁german	-8.488523483276367
▁ten	-8.490108489990234
hi	-8.490133285522461
▁better	-8.491641998291016
▁thus	-8.493001937866211
▁special	-8.493005752563477
▁hi	-8.493623733520508
▁strong	-8.496500015258789
▁tell	-8.497542381286621
▁tu	-8.499262809753418
▁force	-8.500088691711426
ure	-8.500533103942871
▁countries	-8.500787734985352
ka	-8.503548622131348
▁single	-8.504178047180176
lin	-8.504453659057617
▁northern	-8.504891395568848
▁held	-8.505154609680176
▁story	-8.506081581115723
▁har	-8.506905555725098
ger	-8.507725715637207
▁cha	-8.50818157196045
ran	-8.510282516479492
▁production	-8.510300636291504
▁certain	-8.510472297668457
tan	-8.512682914733887
ig	-8.514418601989746
iv	-8.515295028686523
tu	-8.521085739135742
▁difficult	-8.523017883300781
ical	-8.523361206054688
▁fall	-8.52474594116211
▁six	-8.525314331054688
▁god	-8.525567054748535
▁according	-8.526822090148926
▁southern	-8.527020454406738
ugh	-8.529438972473145
▁value	-8.53051471710205
▁n	-8.531011581420898
▁am	-8.534279823303223
▁plan	-8.53478717803955
▁border	-8.535897254943848
ium	-8.536508560180664
▁movement	-8.536718368530273
ber	-8.536919593811035
ie	-8.53711986541748
oc	-8.538492202758789
▁official	-8.538909912109375
▁type	-8.539247512817383
▁ar	-8.54166030883789
▁study	-8.542081832885742
▁question	-8.542868614196777
bu	-8.542960166931152
▁increase	-8.54361343383789
▁sound	-8.546377182006836
▁largest	-8.547724723815918
▁post	-8.547991752624512
ag	-8.54824447631836
▁college	-8.549281120300293
▁went	-8.549800872802734
▁doing	-8.549909591674805
▁lead	-8.551752090454102
▁success	-8.552274703979492
▁instead	-8.552505493164062
▁lower	-8.553173065185547
▁president	-8.553693771362305
▁bre	-8.560178756713867
▁ground	-8.560783386230469
pp	-8.561722755432129
▁action	-8.564006805419922
▁battle	-8.564931869506836
ud	-8.566960334777832
▁township	-8.567721366882324
ny	-8.568281173706055
▁standard	-8.570656776428223
▁lu	-8.572609901428223
▁talk	-8.573180198669434
▁keep	-8.573960304260254
▁street	-8.57529354095459
▁fa	-8.576995849609375
▁da	-8.578874588012695
▁require	-8.580491065979004
▁close	-8.580690383911133
▁star	-8.580838203430176
▁idea	-8.580967903137207
▁education	-8.58360481262207
▁travel	-8.583954811096191
▁money	-8.585811614990234
▁young	-8.58760929107666
▁course	-8.588337898254395
▁ru	-8.588568687438965
od	-8.588582992553711
▁significant	-8.588644981384277
▁individual	-8.588704109191895
▁away	-8.591011047363281
▁series	-8.592500686645508
▁personal	-8.594076156616211
▁mean	-8.594849586486816
ists	-8.595098495483398
ley	-8.59531307220459
▁call	-8.595741271972656
▁cla	-8.595767974853516
▁father	-8.596086502075195
▁st	-8.596368789672852
▁ka	-8.599921226501465
ler	-8.600147247314453
ified	-8.602398872375488
▁interest	-8.603702545166016
▁science	-8.607104301452637
▁problem	-8.609606742858887
ship	-8.610105514526367
▁influence	-8.610674858093262
▁gu	-8.613199234008789
up	-8.61388874053955
▁english	-8.61784553527832
▁bank	-8.618460655212402
▁times	-8.618552207946777
▁create	-8.618755340576172
▁flow	-8.620809555053711
men	-8.621108055114746
▁ge	-8.621350288391113
▁addition	-8.622018814086914
▁subject	-8.624858856201172
tro	-8.625313758850098
▁particular	-8.625595092773438
▁done	-8.629976272583008
▁return	-8.63004207611084
▁systems	-8.63028335571289
▁theory	-8.630481719970703
mer	-8.632018089294434
▁served	-8.632259368896484
▁created	-8.63235855102539
▁surface	-8.633670806884766
▁union	-8.633894920349121
▁higher	-8.634149551391602
▁care	-8.635919570922852
▁test	-8.636727333068848
▁almost	-8.63728141784668
▁middle	-8.637598991394043
fi	-8.638124465942383
vo	-8.639087677001953
ture	-8.639174461364746
▁separate	-8.639409065246582
▁jo	-8.639522552490234
▁move	-8.641220092773438
sa	-8.642433166503906
▁working	-8.64454460144043
▁earth	-8.645816802978516
▁rate	-8.647768020629883
▁european	-8.64810562133789
side	-8.64813232421875
ner	-8.648326873779297
▁location	-8.64844799041748
▁pass	-8.648466110229492
▁che	-8.648890495300293
▁outside	-8.649319648742676
▁complex	-8.649471282958984
nce	-8.650060653686523
▁available	-8.65115737915039
▁contain	-8.651233673095703
ding	-8.654596328735352
gra	-8.658737182617188
▁ship	-8.660052299499512
▁exist	-8.662209510803223
▁included	-8.663016319274902
▁groups	-8.6635160446167
▁amount	-8.664114952087402
▁appear	-8.665055274963379
▁key	-8.666418075561523
▁society	-8.666760444641113
▁continued	-8.666980743408203
▁john	-8.667258262634277
dic	-8.66776180267334
▁eastern	-8.668025970458984
▁super	-8.668411254882812
▁tri	-8.670267105102539
▁civil	-8.670281410217285
▁happen	-8.672449111938477
▁valley	-8.672664642333984
▁relationship	-8.673492431640625
▁bu	-8.674888610839844
per	-8.674958229064941
▁ver	-8.678668975830078
▁eventually	-8.680000305175781
▁forces	-8.681022644042969
▁organ	-8.68506145477295
bb	-8.686906814575195
▁rest	-8.686957359313965
▁port	-8.688011169433594
▁hill	-8.688166618347168
▁face	-8.688532829284668
▁network	-8.688828468322754
▁access	-8.689162254333496
▁bit	-8.68919563293457
▁ki	-8.689266204833984
▁students	-8.689373016357422
▁big	-8.68993091583252
ville	-8.68996810913086
▁wall	-8.69286823272705
▁matter	-8.694890022277832
▁means	-8.696455001831055
▁evidence	-8.6971435546875
▁started	-8.697148323059082
▁services	-8.698663711547852
tal	-8.699460983276367
▁son	-8.702369689941406
▁continue	-8.702630043029785
rt	-8.702860832214355
ious	-8.703179359436035
▁york	-8.70338249206543
▁physical	-8.703847885131836
tor	-8.705270767211914
▁enough	-8.706026077270508
▁industry	-8.70711612701416
▁plant	-8.707453727722168
▁prevent	-8.707813262939453
▁effect	-8.70804214477539
▁m	-8.711064338684082
▁th	-8.711894035339355
▁past	-8.714112281799316
ative	-8.716731071472168
▁europe	-8.717046737670898
▁produce	-8.717290878295898
▁attempt	-8.717455863952637
fa	-8.717806816101074
▁cost	-8.717824935913086
▁green	-8.72067928314209
▁traditional	-8.722174644470215
▁host	-8.723806381225586
▁itself	-8.725345611572266
▁future	-8.72624683380127
▁thank	-8.726333618164062
ak	-8.726658821105957
▁particularly	-8.727663040161133
▁wood	-8.729674339294434
▁mis	-8.731583595275879
▁size	-8.7324800491333
▁upon	-8.733424186706543
▁front	-8.734213829040527
▁wa	-8.734307289123535
▁trans	-8.735149383544922
▁feel	-8.735284805297852
▁seem	-8.735349655151367
▁pen	-8.736197471618652
▁qua	-8.736730575561523
▁material	-8.738154411315918
▁provided	-8.740132331848145
▁je	-8.740942001342773
▁term	-8.741125106811523
mit	-8.741995811462402
▁taken	-8.7424898147583
▁private	-8.74349308013916
▁cross	-8.744982719421387
▁read	-8.74526596069336
▁sun	-8.746414184570312
▁specific	-8.746687889099121
gi	-8.746970176696777
▁himself	-8.74792766571045
▁consist	-8.74817943572998
▁allowed	-8.750235557556152
▁para	-8.750703811645508
▁risk	-8.758362770080566
▁temperature	-8.75957202911377
led	-8.759652137756348
▁capital	-8.76009750366211
▁days	-8.761070251464844
▁wanted	-8.761323928833008
▁top	-8.763457298278809
ological	-8.764788627624512
▁believe	-8.765101432800293
▁nature	-8.766146659851074
▁text	-8.766164779663086
pi	-8.766307830810547
▁cap	-8.766575813293457
ile	-8.767231941223145
▁met	-8.768869400024414
we	-8.769102096557617
▁san	-8.769710540771484
▁offer	-8.769783020019531
▁base	-8.77053451538086
▁current	-8.770889282226562
▁schools	-8.771768569946289
ron	-8.772079467773438
▁sign	-8.772173881530762
ised	-8.77357006072998
▁religious	-8.77368450164795
▁direct	-8.774138450622559
▁t	-8.77467155456543
▁style	-8.775293350219727
ap	-8.775863647460938
▁deal	-8.777710914611816
ise	-8.779925346374512
▁organization	-8.780088424682617
ning	-8.781445503234863
▁third	-8.78156566619873
▁decision	-8.78284740447998
▁color	-8.78335189819336
▁sp	-8.783906936645508
cy	-8.784727096557617
▁works	-8.78600025177002
▁board	-8.786857604980469
▁source	-8.786880493164062
▁mother	-8.787018775939941
▁events	-8.787223815917969
▁va	-8.788069725036621
▁season	-8.788200378417969
▁played	-8.78834342956543
the	-8.790199279785156
▁stage	-8.790353775024414
▁required	-8.790412902832031
▁whole	-8.791770935058594
▁ever	-8.792201042175293
king	-8.792481422424316
▁character	-8.793054580688477
espite	-8.793079376220703
▁ii	-8.794245719909668
▁lack	-8.794459342956543
▁claim	-8.794734954833984
ors	-8.795328140258789
▁computer	-8.795347213745117
▁approach	-8.795666694641113
ual	-8.796699523925781
▁established	-8.796833992004395
▁living	-8.798613548278809
tin	-8.798619270324707
▁economy	-8.798924446105957
▁ob	-8.799944877624512
▁themselves	-8.800666809082031
▁hold	-8.801877975463867
▁summer	-8.80209732055664
▁gas	-8.803030967712402
dy	-8.80381965637207
▁typically	-8.804713249206543
▁sense	-8.805062294006348
▁function	-8.805501937866211
den	-8.806144714355469
▁cor	-8.806500434875488
▁member	-8.809060096740723
▁potential	-8.809751510620117
▁climate	-8.81165599822998
▁department	-8.814427375793457
▁above	-8.817192077636719
less	-8.817305564880371
▁disease	-8.819032669067383
▁sc	-8.819222450256348
▁night	-8.819433212280273
▁leave	-8.821710586547852
▁rule	-8.822151184082031
▁america	-8.823225021362305
▁concept	-8.823378562927246
ast	-8.825632095336914
▁received	-8.825944900512695
▁image	-8.82667064666748
▁believed	-8.829354286193848
▁cases	-8.82991886138916
▁associated	-8.830032348632812
ries	-8.830880165100098
ki	-8.831324577331543
▁bring	-8.831934928894043
▁independent	-8.831988334655762
▁program	-8.832087516784668
▁saw	-8.832182884216309
▁soon	-8.833693504333496
▁job	-8.834080696105957
▁pressure	-8.834267616271973
▁police	-8.834585189819336
istic	-8.83505916595459
▁produced	-8.83767032623291
▁media	-8.838348388671875
▁royal	-8.840368270874023
▁performance	-8.84062385559082
au	-8.841419219970703
▁half	-8.842543601989746
▁terms	-8.843364715576172
▁figure	-8.844889640808105
▁least	-8.846406936645508
▁clear	-8.847099304199219
▁tra	-8.84732723236084
▁ci	-8.84914779663086
▁sent	-8.849169731140137
▁successful	-8.84953498840332
gg	-8.849642753601074
ged	-8.850255012512207
▁months	-8.850323677062988
▁method	-8.850988388061523
▁deep	-8.851983070373535
▁centre	-8.855661392211914
▁cities	-8.856476783752441
▁train	-8.858081817626953
▁ve	-8.858648300170898
▁library	-8.8587646484375
▁writing	-8.85922622680664
▁changes	-8.85925006866455
ability	-8.860918045043945
▁consider	-8.861188888549805
▁technology	-8.861539840698242
▁bra	-8.861629486083984
▁class	-8.86165714263916
ach	-8.863160133361816
▁r	-8.863441467285156
▁ancient	-8.863632202148438
ex	-8.863741874694824
gan	-8.863990783691406
▁app	-8.864291191101074
ify	-8.864911079406738
▁song	-8.864914894104004
▁wide	-8.86553955078125
ah	-8.869149208068848
▁mon	-8.870174407958984
▁cu	-8.871248245239258
▁increased	-8.871438026428223
▁larger	-8.87187671661377
▁growth	-8.8720703125
▁fund	-8.872427940368652
red	-8.872984886169434
▁mass	-8.874518394470215
▁origin	-8.875227928161621
▁coast	-8.87787914276123
ham	-8.880729675292969
▁account	-8.881664276123047
▁sh	-8.883910179138184
▁cover	-8.884478569030762
pt	-8.884589195251465
▁pay	-8.88587474822998
ible	-8.887300491333008
▁measure	-8.887453079223633
▁forest	-8.88924503326416
▁christian	-8.889707565307617
▁cell	-8.892237663269043
▁probably	-8.894022941589355
▁caused	-8.894207954406738
▁brought	-8.89426326751709
▁indian	-8.89498233795166
▁legal	-8.895174980163574
▁empire	-8.895340919494629
▁already	-8.89557933807373
▁native	-8.895856857299805
▁si	-8.897176742553711
▁commercial	-8.898698806762695
▁comm	-8.90028190612793
ging	-8.901691436767578
▁lost	-8.902419090270996
▁therefore	-8.90291690826416
▁walk	-8.904041290283203
▁longer	-8.905746459960938
ration	-8.906229972839355
ius	-8.906895637512207
▁break	-8.907630920410156
▁environment	-8.909402847290039
▁mer	-8.910076141357422
▁fo	-8.911417007446289
▁forms	-8.91695499420166
▁stra	-8.917231559753418
▁brain	-8.917436599731445
▁tradition	-8.9191312789917
▁charge	-8.919791221618652
▁winter	-8.92197036743164
▁involved	-8.922136306762695
▁written	-8.923398971557617
▁purpose	-8.923399925231934
▁award	-8.923576354980469
▁version	-8.924117088317871
▁problems	-8.924293518066406
ight	-8.92574691772461
▁room	-8.926097869873047
▁metal	-8.926482200622559
tri	-8.927606582641602
▁suggest	-8.92840576171875
▁club	-8.928464889526367
▁seven	-8.928606986999512
▁mind	-8.928927421569824
▁full	-8.930391311645508
▁l	-8.93064022064209
▁limit	-8.933119773864746
mor	-8.933541297912598
▁cultural	-8.93367862701416
▁england	-8.93367862701416
▁gave	-8.934178352355957
▁focus	-8.935057640075684
▁tend	-8.935577392578125
▁store	-8.936934471130371
gen	-8.937285423278809
ral	-8.937503814697266
▁report	-8.93843936920166
▁moved	-8.939492225646973
▁perform	-8.941873550415039
▁conditions	-8.942129135131836
▁related	-8.942194938659668
▁entire	-8.943081855773926
▁variety	-8.943431854248047
ier	-8.943594932556152
▁parts	-8.944314956665039
▁blood	-8.944528579711914
ee	-8.944643020629883
▁issue	-8.945671081542969
▁numerous	-8.945696830749512
▁radio	-8.945965766906738
▁museum	-8.947210311889648
▁bill	-8.949575424194336
▁kingdom	-8.950753211975098
▁fish	-8.9520845413208
qui	-8.952133178710938
▁sal	-8.95300006866455
ons	-8.95419692993164
▁simple	-8.954364776611328
▁final	-8.95466136932373
▁sort	-8.954809188842773
▁fight	-8.956342697143555
use	-8.957035064697266
▁hall	-8.958251953125
▁chinese	-8.9583740234375
▁likely	-8.959314346313477
▁bridge	-8.96064567565918
▁respect	-8.961952209472656
▁china	-8.962177276611328
▁policy	-8.962723731994629
ably	-8.96398639678955
▁product	-8.964127540588379
▁enter	-8.965718269348145
▁follow	-8.96677017211914
eg	-8.967826843261719
▁bur	-8.968668937683105
em	-8.969151496887207
▁micro	-8.972685813903809
▁construction	-8.976451873779297
▁foreign	-8.978606224060059
▁limited	-8.97928524017334
▁ball	-8.980937957763672
▁machine	-8.981738090515137
▁visit	-8.981965065002441
▁majority	-8.982062339782715
▁path	-8.982413291931152
▁companies	-8.982521057128906
▁treatment	-8.9837064743042
▁piece	-8.985180854797363
▁disc	-8.985960960388184
▁effects	-8.988389015197754
▁impact	-8.99013614654541
▁loss	-8.990741729736328
▁signal	-8.990775108337402
▁cra	-8.991070747375488
▁towards	-8.992997169494629
tur	-8.993000030517578
▁won	-8.993223190307617
▁primary	-8.995808601379395
▁hundred	-8.995940208435059
rate	-8.996542930603027
▁share	-8.997527122497559
▁cre	-8.998709678649902
▁maintain	-8.998842239379883
▁fer	-8.999152183532715
ec	-8.999253273010254
▁formed	-8.99968147277832
▁directly	-9.000094413757324
▁child	-9.000357627868652
▁list	-9.000978469848633
▁track	-9.001971244812012
field	-9.0027494430542
▁develop	-9.003462791442871
▁occur	-9.005716323852539
let	-9.006119728088379
▁v	-9.006551742553711
▁event	-9.006903648376465
▁greater	-9.007124900817871
▁others	-9.007797241210938
▁yet	-9.007928848266602
▁protect	-9.008330345153809
ose	-9.010245323181152
▁nor	-9.010966300964355
▁mountain	-9.01140022277832
▁london	-9.013042449951172
▁reach	-9.013151168823242
▁studies	-9.014795303344727
▁needed	-9.014817237854004
▁remain	-9.015499114990234
und	-9.015604019165039
▁multiple	-9.015664100646973
▁true	-9.016105651855469
nic	-9.016703605651855
▁step	-9.017075538635254
▁worked	-9.017271041870117
▁build	-9.01732349395752
▁training	-9.017602920532227
▁route	-9.019346237182617
▁moment	-9.0195951461792
▁designed	-9.020211219787598
▁camp	-9.020336151123047
wi	-9.022521018981934
ification	-9.0235595703125
▁federal	-9.024016380310059
▁medical	-9.02432632446289
▁demand	-9.024456024169922
ular	-9.025273323059082
▁trying	-9.026411056518555
▁poor	-9.026494026184082
▁career	-9.026590347290039
▁eye	-9.027139663696289
by	-9.029366493225098
▁makes	-9.030935287475586
▁ability	-9.03183650970459
▁eight	-9.032034873962402
rk	-9.033717155456543
▁france	-9.033885955810547
▁remained	-9.034024238586426
▁blue	-9.034154891967773
▁situation	-9.034561157226562
uc	-9.034749031066895
▁leading	-9.034845352172852
▁quickly	-9.035272598266602
▁taking	-9.036931991577148
▁tax	-9.037416458129883
▁friend	-9.037671089172363
▁cur	-9.037888526916504
▁anti	-9.038491249084473
▁financial	-9.038559913635254
▁author	-9.03960132598877
▁stop	-9.040081977844238
▁bay	-9.04089069366455
▁understand	-9.04218864440918
▁recent	-9.042498588562012
io	-9.043038368225098
▁damage	-9.0435152053833
▁late	-9.043692588806152
▁wi	-9.045196533203125
▁block	-9.045206069946289
mark	-9.045369148254395
▁female	-9.04716968536377
▁try	-9.047176361083984
▁features	-9.048211097717285
▁eu	-9.050882339477539
▁spring	-9.052638053894043
▁active	-9.053998947143555
▁ke	-9.054701805114746
▁ab	-9.055562019348145
▁animals	-9.056276321411133
▁ven	-9.057120323181152
▁gene	-9.05727767944336
▁mostly	-9.057872772216797
ze	-9.059109687805176
▁types	-9.059814453125
▁residents	-9.060500144958496
▁section	-9.061210632324219
▁smaller	-9.062237739562988
▁instrument	-9.062480926513672
▁serve	-9.062565803527832
▁remains	-9.063106536865234
▁code	-9.063342094421387
▁greek	-9.065744400024414
▁x	-9.066071510314941
▁represent	-9.06629467010498
ld	-9.066813468933105
▁games	-9.067281723022461
▁reflect	-9.067305564880371
▁speed	-9.067352294921875
late	-9.06838607788086
ow	-9.068887710571289
▁wind	-9.0706787109375
▁pla	-9.07084846496582
▁ocean	-9.0724458694458
▁oil	-9.072511672973633
▁cut	-9.075069427490234
ney	-9.07646369934082
▁bla	-9.077400207519531
▁char	-9.077742576599121
▁cells	-9.078107833862305
▁ed	-9.078182220458984
tter	-9.078634262084961
▁cannot	-9.07939624786377
ition	-9.079785346984863
▁heat	-9.080083847045898
if	-9.080850601196289
▁concern	-9.080988883972168
▁industrial	-9.081633567810059
▁catholic	-9.082499504089355
▁acc	-9.083003044128418
▁includes	-9.083921432495117
▁response	-9.084379196166992
▁shape	-9.084845542907715
▁commission	-9.085393905639648
▁maybe	-9.085748672485352
▁male	-9.087671279907227
▁letter	-9.088650703430176
▁property	-9.089677810668945
▁fair	-9.089823722839355
▁avoid	-9.090938568115234
▁record	-9.091476440429688
ped	-9.091789245605469
▁grand	-9.093119621276855
▁portion	-9.093574523925781
▁historic	-9.09392261505127
▁kid	-9.094423294067383
▁factor	-9.094522476196289
▁chi	-9.094857215881348
▁document	-9.095439910888672
▁brother	-9.096179008483887
▁cool	-9.096363067626953
▁kill	-9.096742630004883
▁behavior	-9.097635269165039
▁prior	-9.098569869995117
▁decided	-9.098603248596191
ps	-9.101948738098145
▁ph	-9.101969718933105
▁elements	-9.102243423461914
▁explain	-9.104552268981934
▁fla	-9.105327606201172
our	-9.10537338256836
▁meeting	-9.10561466217041
▁books	-9.105834007263184
▁communities	-9.10736083984375
ft	-9.107417106628418
za	-9.107483863830566
▁rights	-9.108500480651855
▁clo	-9.110224723815918
cent	-9.111051559448242
▁minister	-9.111074447631836
▁century	-9.111515045166016
▁historical	-9.11175537109375
han	-9.112289428710938
▁add	-9.114191055297852
▁win	-9.115819931030273
▁hope	-9.116218566894531
▁goal	-9.117106437683105
lan	-9.117542266845703
▁dia	-9.117857933044434
▁election	-9.117992401123047
▁symbol	-9.11902141571045
▁seat	-9.119250297546387
▁exp	-9.119394302368164
ay	-9.121609687805176
▁william	-9.121844291687012
▁widely	-9.122467994689941
▁mark	-9.122583389282227
▁levels	-9.123604774475098
▁degree	-9.12453556060791
▁ask	-9.124983787536621
▁behind	-9.12529182434082
▁cal	-9.125653266906738
▁device	-9.126367568969727
▁pattern	-9.126800537109375
ric	-9.127358436584473
gon	-9.127385139465332
▁farm	-9.127760887145996
▁nu	-9.129199981689453
▁mill	-9.129222869873047
▁rec	-9.129291534423828
▁followed	-9.129378318786621
▁stone	-9.129926681518555
▁everything	-9.132570266723633
▁ste	-9.133064270019531
len	-9.13415241241455
▁anything	-9.137160301208496
▁conflict	-9.137575149536133
izing	-9.138543128967285
▁equal	-9.13880443572998
▁airport	-9.140250205993652
▁inside	-9.140792846679688
▁reform	-9.14128303527832
▁creek	-9.144315719604492
▁direction	-9.1443510055542
par	-9.144573211669922
▁wo	-9.144622802734375
fl	-9.1458101272583
▁price	-9.145848274230957
▁vo	-9.14703369140625
▁transport	-9.148048400878906
▁spread	-9.149242401123047
▁whose	-9.1500825881958
▁largely	-9.150712966918945
▁ec	-9.151236534118652
▁op	-9.153903007507324
tive	-9.154165267944336
j	-9.154446601867676
▁scene	-9.154692649841309
▁originally	-9.155964851379395
▁highly	-9.156197547912598
▁vote	-9.156722068786621
ey	-9.156838417053223
tation	-9.157426834106445
▁wave	-9.157647132873535
▁era	-9.158169746398926
▁benefit	-9.158548355102539
ov	-9.15945053100586
car	-9.160157203674316
▁earlier	-9.160577774047852
▁heart	-9.160829544067383
oid	-9.163599014282227
▁bad	-9.164311408996582
ea	-9.164466857910156
▁hear	-9.165170669555664
▁campaign	-9.165586471557617
▁activities	-9.166057586669922
▁getting	-9.166638374328613
▁buildings	-9.167932510375977
▁division	-9.167943000793457
▁player	-9.170211791992188
cul	-9.171334266662598
▁changed	-9.171456336975098
gn	-9.171733856201172
du	-9.173766136169434
▁hospital	-9.173781394958496
▁chemical	-9.174613952636719
▁ban	-9.174704551696777
▁activity	-9.175555229187012
▁drug	-9.17600154876709
▁album	-9.176010131835938
▁guy	-9.176161766052246
▁gold	-9.176846504211426
▁stay	-9.177105903625488
▁object	-9.177268981933594
▁total	-9.178035736083984
▁broad	-9.179659843444824
▁professional	-9.17969036102295
her	-9.179991722106934
▁bus	-9.18027400970459
gue	-9.181601524353027
▁mission	-9.181779861450195
▁words	-9.18208122253418
▁gri	-9.182869911193848
▁bri	-9.183226585388184
rus	-9.183662414550781
▁relatively	-9.183846473693848
av	-9.184096336364746
yl	-9.184677124023438
▁mal	-9.185455322265625
▁annual	-9.185585021972656
des	-9.185832023620605
▁horse	-9.18587589263916
▁quite	-9.18668270111084
ned	-9.187393188476562
▁display	-9.188434600830078
▁provides	-9.189093589782715
▁officer	-9.189677238464355
▁league	-9.190054893493652
mic	-9.190536499023438
▁word	-9.191502571105957
▁settlement	-9.191563606262207
▁knowledge	-9.191986083984375
▁ice	-9.192071914672852
▁authority	-9.192087173461914
▁sure	-9.192594528198242
▁meaning	-9.192842483520508
▁issues	-9.193155288696289
▁railroad	-9.193275451660156
▁mor	-9.193475723266602
▁challenge	-9.193597793579102
▁festival	-9.194082260131836
▁receive	-9.195210456848145
▁learn	-9.195727348327637
▁felt	-9.195748329162598
row	-9.195801734924316
br	-9.19593620300293
ang	-9.196118354797363
▁custom	-9.197966575622559
▁via	-9.198028564453125
▁products	-9.19913101196289
▁detail	-9.201056480407715
▁involve	-9.201416969299316
▁cho	-9.20252799987793
▁week	-9.202848434448242
▁begin	-9.202901840209961
▁below	-9.203461647033691
▁pan	-9.204065322875977
▁fear	-9.204219818115234
▁regional	-9.204543113708496
▁paper	-9.204877853393555
▁described	-9.20524787902832
▁target	-9.206267356872559
▁lines	-9.206582069396973
▁soviet	-9.207093238830566
▁surrounding	-9.207289695739746
▁india	-9.207508087158203
▁global	-9.208728790283203
▁looking	-9.209328651428223
▁table	-9.211047172546387
▁fun	-9.212383270263672
burg	-9.212623596191406
▁rich	-9.213953018188477
▁cru	-9.213963508605957
▁parliament	-9.214639663696289
▁places	-9.21500301361084
▁security	-9.215134620666504
▁couple	-9.215306282043457
▁primarily	-9.215959548950195
▁reduce	-9.216414451599121
▁chief	-9.21753978729248
▁constant	-9.218937873840332
mu	-9.220335006713867
▁numbers	-9.220346450805664
▁video	-9.220454216003418
▁branch	-9.221378326416016
▁rep	-9.223296165466309
▁ko	-9.224291801452637
▁min	-9.226272583007812
▁accept	-9.226394653320312
pl	-9.227046012878418
ker	-9.227395057678223
▁race	-9.228508949279785
▁command	-9.22852611541748
▁den	-9.229008674621582
▁rise	-9.229954719543457
hu	-9.23044490814209
▁depend	-9.230567932128906
▁attract	-9.230704307556152
▁sexual	-9.230705261230469
one	-9.231104850769043
▁beginning	-9.231964111328125
▁gen	-9.232491493225098
▁commonly	-9.232597351074219
▁nearby	-9.232844352722168
▁families	-9.233274459838867
ple	-9.234525680541992
▁results	-9.234615325927734
▁quality	-9.234956741333008
▁complete	-9.235836029052734
▁arch	-9.23605728149414
ford	-9.23617935180664
ja	-9.237693786621094
ome	-9.238969802856445
▁hot	-9.239144325256348
▁forced	-9.240266799926758
▁scientific	-9.240521430969238
▁card	-9.240816116333008
▁coming	-9.241852760314941
▁title	-9.241935729980469
▁territory	-9.242045402526855
▁peace	-9.242225646972656
▁stories	-9.242334365844727
▁religion	-9.244080543518066
med	-9.249183654785156
▁skill	-9.250402450561523
▁sold	-9.250720024108887
▁wife	-9.251187324523926
▁cy	-9.252159118652344
▁attention	-9.252436637878418
▁prop	-9.252608299255371
▁solution	-9.253462791442871
▁ways	-9.253708839416504
▁belief	-9.253809928894043
▁experiment	-9.254271507263184
▁address	-9.254499435424805
rac	-9.254518508911133
com	-9.254837989807129
▁employ	-9.256563186645508
▁resources	-9.256610870361328
▁content	-9.256611824035645
▁effective	-9.257081031799316
▁leg	-9.258315086364746
▁completely	-9.260035514831543
▁growing	-9.260224342346191
cl	-9.260464668273926
fe	-9.260943412780762
▁someone	-9.261000633239746
▁scale	-9.26134967803955
▁responsible	-9.263104438781738
▁television	-9.26448917388916
▁heavy	-9.264676094055176
▁tro	-9.264771461486816
▁pu	-9.26546859741211
▁stand	-9.26574420928955
▁contract	-9.265877723693848
▁watch	-9.26606273651123
▁japanese	-9.26697826385498
▁length	-9.267267227172852
▁friends	-9.267916679382324
▁placed	-9.269353866577148
▁h	-9.269644737243652
▁meet	-9.27083683013916
▁additional	-9.27176570892334
▁hit	-9.27304744720459
▁threat	-9.27320384979248
▁ser	-9.274860382080078
kin	-9.275153160095215
▁languages	-9.2754545211792
▁poly	-9.275641441345215
▁germany	-9.277080535888672
▁affect	-9.277094841003418
▁connect	-9.278498649597168
▁eat	-9.28113079071045
▁engine	-9.281405448913574
▁whi	-9.281986236572266
▁answer	-9.283391952514648
▁bru	-9.28355884552002
▁principle	-9.283732414245605
▁distance	-9.28427505493164
▁wrote	-9.284793853759766
▁acid	-9.28520393371582
▁unit	-9.28549861907959
▁bird	-9.285550117492676
▁nation	-9.285776138305664
▁planet	-9.286033630371094
▁africa	-9.287317276000977
▁sand	-9.28789234161377
▁collection	-9.288278579711914
house	-9.288895606994629
head	-9.290757179260254
▁refer	-9.291327476501465
▁er	-9.291977882385254
▁mil	-9.29295825958252
fer	-9.2938871383667
▁operation	-9.293935775756836
▁burn	-9.295321464538574
▁shown	-9.296165466308594
▁patient	-9.29653263092041
▁killed	-9.29875373840332
▁supported	-9.301066398620605
▁players	-9.302422523498535
pro	-9.302474021911621
▁individuals	-9.302780151367188
▁urban	-9.302816390991211
▁association	-9.303173065185547
▁release	-9.303686141967773
▁elected	-9.305363655090332
▁initially	-9.305761337280273
▁cold	-9.305922508239746
▁sum	-9.306031227111816
▁aircraft	-9.306483268737793
chi	-9.306634902954102
▁necessary	-9.306781768798828
▁sil	-9.308921813964844
▁cast	-9.309414863586426
▁plants	-9.309971809387207
▁iron	-9.310214042663574
▁component	-9.310585021972656
▁match	-9.311482429504395
▁upper	-9.311532020568848
fu	-9.311623573303223
▁committee	-9.31221866607666
▁adapt	-9.314251899719238
▁round	-9.314620971679688
▁mac	-9.314876556396484
ana	-9.315435409545898
▁sch	-9.315703392028809
▁province	-9.3158597946167
▁troops	-9.31592082977295
▁spanish	-9.316408157348633
ub	-9.316490173339844
▁african	-9.316543579101562
▁contact	-9.316774368286133
▁asked	-9.317314147949219
▁returned	-9.317963600158691
▁collect	-9.319628715515137
▁remember	-9.320247650146484
ip	-9.320630073547363
▁animal	-9.321738243103027
hen	-9.322416305541992
▁del	-9.322532653808594
▁died	-9.322821617126465
well	-9.323572158813477
▁ly	-9.323663711547852
▁prison	-9.324103355407715
▁indicate	-9.324799537658691
▁railway	-9.325041770935059
▁dev	-9.32550048828125
▁mainly	-9.325529098510742
▁adult	-9.326512336730957
▁aspect	-9.327058792114258
▁fu	-9.32794189453125
▁extensive	-9.328895568847656
▁pur	-9.329507827758789
▁spi	-9.329636573791504
▁unique	-9.329822540283203
▁cri	-9.330055236816406
▁date	-9.331929206848145
▁million	-9.33210277557373
ev	-9.33225154876709
▁reaction	-9.332369804382324
▁connection	-9.332968711853027
▁mc	-9.333065032958984
▁birth	-9.333532333374023
▁beach	-9.335222244262695
▁regard	-9.336894989013672
▁fan	-9.337041854858398
▁par	-9.33781909942627
▁choice	-9.3381929397583
▁okay	-9.339303016662598
qu	-9.339313507080078
▁carry	-9.339628219604492
meter	-9.340256690979004
▁boy	-9.34040355682373
▁auto	-9.341903686523438
▁sur	-9.341981887817383
▁gun	-9.343578338623047
▁serious	-9.343603134155273
▁gain	-9.34392261505127
▁link	-9.345585823059082
▁positive	-9.34566593170166
▁press	-9.346158027648926
▁print	-9.34622573852539
ase	-9.346549034118652
▁marriage	-9.346607208251953
▁supply	-9.346983909606934
▁emperor	-9.347358703613281
▁pri	-9.347417831420898
ab	-9.347818374633789
▁gi	-9.348491668701172
▁weak	-9.348706245422363
▁grow	-9.348941802978516
▁invest	-9.34962272644043
▁write	-9.35052490234375
▁methods	-9.35068130493164
▁audience	-9.35094165802002
▁sources	-9.351028442382812
▁else	-9.353293418884277
▁ideas	-9.354660034179688
▁mountains	-9.35495662689209
▁spec	-9.355745315551758
▁status	-9.355917930603027
▁turned	-9.356039047241211
▁trail	-9.356310844421387
▁correct	-9.357197761535645
▁moving	-9.357605934143066
▁detect	-9.358342170715332
▁user	-9.358494758605957
▁dead	-9.35910415649414
▁weight	-9.359314918518066
▁yes	-9.359443664550781
▁frequently	-9.359821319580078
▁added	-9.360240936279297
val	-9.361387252807617
▁basic	-9.362020492553711
▁ran	-9.362207412719727
▁born	-9.362337112426758
▁tribe	-9.362480163574219
▁woman	-9.362654685974121
▁hor	-9.362903594970703
▁picture	-9.362915992736816
▁told	-9.363229751586914
▁bio	-9.364516258239746
▁increasing	-9.364721298217773
▁sl	-9.36541748046875
fect	-9.36569881439209
▁laws	-9.3662691116333
▁prince	-9.36693286895752
▁carbon	-9.367541313171387
form	-9.36758804321289
▁advantage	-9.367705345153809
▁presence	-9.367791175842285
▁thousands	-9.36802864074707
lon	-9.368215560913086
▁normal	-9.369356155395508
▁currently	-9.369515419006348
▁comes	-9.370095252990723
serv	-9.370241165161133
▁immediately	-9.370535850524902
▁programs	-9.371138572692871
▁playing	-9.371175765991211
▁communication	-9.371940612792969
▁engage	-9.372145652770996
▁management	-9.372268676757812
▁islands	-9.37244701385498
▁helped	-9.374265670776367
▁rules	-9.374828338623047
▁gar	-9.374833106994629
▁wild	-9.375328063964844
ya	-9.377005577087402
▁materials	-9.377556800842285
▁learning	-9.378021240234375
▁soil	-9.379096031188965
▁z	-9.379651069641113
▁ham	-9.380428314208984
▁syn	-9.381284713745117
▁russian	-9.38137435913086
▁lived	-9.381793975830078
▁unlike	-9.382416725158691
▁vary	-9.382830619812012
▁reported	-9.383173942565918
▁formal	-9.38322639465332
▁internal	-9.38349437713623
▁month	-9.383607864379883
▁protection	-9.38563060760498
▁secret	-9.38614559173584
bra	-9.386337280273438
▁ya	-9.386439323425293
▁negative	-9.386516571044922
▁pain	-9.386595726013184
ok	-9.38769245147705
▁writer	-9.388176918029785
▁arm	-9.388508796691895
▁powerful	-9.390044212341309
▁pick	-9.390706062316895
▁spent	-9.391158103942871
▁foot	-9.392865180969238
▁fra	-9.392973899841309
▁previous	-9.392995834350586
▁sell	-9.393149375915527
rian	-9.393576622009277
▁parents	-9.39427375793457
don	-9.394730567932129
cur	-9.39577865600586
water	-9.3980131149292
▁running	-9.39831829071045
▁bear	-9.398490905761719
▁sports	-9.398876190185547
▁def	-9.399544715881348
▁revolution	-9.39974308013916
▁generation	-9.400127410888672
rop	-9.400311470031738
▁fit	-9.402194023132324
ai	-9.402361869812012
▁protein	-9.40250301361084
▁allows	-9.402525901794434
▁condition	-9.402778625488281
▁listen	-9.402833938598633
▁tried	-9.402883529663086
end	-9.403264999389648
port	-9.405205726623535
▁stuff	-9.40615463256836
▁dark	-9.40625
▁edge	-9.406420707702637
out	-9.406428337097168
▁coll	-9.407036781311035
▁thinking	-9.407188415527344
▁novel	-9.407280921936035
▁layer	-9.407533645629883
▁basis	-9.407635688781738
▁takes	-9.407859802246094
dge	-9.40798282623291
atic	-9.408214569091797
▁fre	-9.4087553024292
▁guard	-9.409499168395996
▁shows	-9.409584045410156
▁rev	-9.410784721374512
▁administration	-9.411489486694336
▁voice	-9.412050247192383
▁daughter	-9.41229248046875
▁mayor	-9.412507057189941
▁questions	-9.412683486938477
▁mount	-9.414048194885254
ep	-9.414215087890625
▁simply	-9.414711952209473
▁gro	-9.415191650390625
▁tour	-9.41541576385498
▁attend	-9.41649055480957
▁exchange	-9.417125701904297
▁properties	-9.417373657226562
▁difference	-9.417465209960938
▁dance	-9.419539451599121
▁tru	-9.419587135314941
log	-9.41962718963623
▁epi	-9.420958518981934
▁critical	-9.420988082885742
▁prime	-9.421317100524902
▁software	-9.421980857849121
▁carried	-9.422017097473145
▁conduct	-9.422532081604004
▁fuel	-9.422758102416992
▁gal	-9.423731803894043
▁promote	-9.424086570739746
ography	-9.425128936767578
▁partner	-9.425567626953125
onic	-9.425966262817383
▁pun	-9.426072120666504
▁qui	-9.426115036010742
▁spend	-9.426251411437988
▁van	-9.426762580871582
▁survive	-9.426861763000488
▁intended	-9.426864624023438
▁released	-9.427098274230957
▁defend	-9.42757511138916
▁charles	-9.427680969238281
▁introduced	-9.427769660949707
▁screen	-9.428089141845703
vers	-9.429203033447266
▁director	-9.430052757263184
▁henry	-9.4304780960083
▁mel	-9.430696487426758
▁send	-9.430720329284668
for	-9.430960655212402
duct	-9.431242942810059
▁relative	-9.43129825592041
▁drive	-9.431456565856934
mar	-9.43174934387207
▁bomb	-9.432147026062012
▁talking	-9.432991027832031
▁mat	-9.433152198791504
▁understanding	-9.43336296081543
▁credit	-9.433633804321289
work	-9.433764457702637
▁characteristic	-9.434102058410645
▁vehicle	-9.434430122375488
▁republic	-9.435647010803223
▁alternative	-9.435664176940918
▁nothing	-9.436582565307617
▁sti	-9.436750411987305
▁highest	-9.437275886535645
time	-9.437880516052246
▁beyond	-9.437928199768066
▁wear	-9.438558578491211
ef	-9.440134048461914
▁join	-9.440732955932617
▁shot	-9.440732955932617
▁kept	-9.441448211669922
▁describe	-9.441693305969238
▁channel	-9.442057609558105
▁square	-9.442473411560059
▁grew	-9.442535400390625
▁temple	-9.442888259887695
▁average	-9.443339347839355
▁proposed	-9.443511962890625
▁forward	-9.44422721862793
wood	-9.444727897644043
▁applied	-9.444971084594727
▁failed	-9.445199012756348
ory	-9.445249557495117
▁performed	-9.445296287536621
▁britain	-9.445582389831543
▁arab	-9.44604206085205
▁operations	-9.448158264160156
▁recover	-9.450071334838867
▁slow	-9.450559616088867
▁severe	-9.450711250305176
▁regular	-9.450895309448242
▁labor	-9.453034400939941
▁safe	-9.453174591064453
▁die	-9.454402923583984
▁governor	-9.455327033996582
▁debate	-9.456337928771973
▁plain	-9.4563570022583
gh	-9.456952095031738
lar	-9.457362174987793
▁box	-9.457508087158203
▁musical	-9.458130836486816
▁connected	-9.45869255065918
over	-9.458930969238281
▁replaced	-9.459111213684082
▁finally	-9.459273338317871
▁flu	-9.459583282470703
▁resulting	-9.459990501403809
▁skin	-9.460357666015625
▁jewish	-9.461700439453125
▁ring	-9.46320629119873
▁deliver	-9.46430492401123
▁george	-9.464873313903809
qua	-9.466184616088867
▁aid	-9.466340065002441
▁boat	-9.466797828674316
▁leader	-9.46690845489502
ically	-9.467247009277344
▁enjoy	-9.467416763305664
▁previously	-9.467629432678223
ari	-9.469945907592773
▁famous	-9.469968795776367
▁wealth	-9.470027923583984
▁exactly	-9.470141410827637
▁seek	-9.47115707397461
▁zone	-9.472146987915039
▁feature	-9.473959922790527
▁sca	-9.474888801574707
▁influenced	-9.475790023803711
▁contains	-9.476846694946289
▁environmental	-9.476884841918945
▁competition	-9.479586601257324
▁analysis	-9.480016708374023
▁lives	-9.480069160461426
▁gre	-9.480142593383789
ko	-9.480948448181152
▁task	-9.481051445007324
arian	-9.481242179870605
▁nuclear	-9.481314659118652
▁crime	-9.481715202331543
lie	-9.482004165649414
▁manufacture	-9.482383728027344
cle	-9.482852935791016
▁failure	-9.483169555664062
▁factors	-9.483244895935059
▁swa	-9.483550071716309
▁lies	-9.48355484008789
▁claimed	-9.483585357666016
cr	-9.483661651611328
can	-9.483931541442871
aries	-9.483955383300781
▁contrast	-9.48432731628418
▁honor	-9.484570503234863
lip	-9.485091209411621
▁reveal	-9.485241889953613
ina	-9.485709190368652
▁search	-9.486285209655762
▁defined	-9.486330032348633
board	-9.489545822143555
▁learned	-9.489860534667969
▁objects	-9.48988151550293
▁whom	-9.490468978881836
▁equipment	-9.491474151611328
▁workers	-9.491604804992676
▁genetic	-9.492560386657715
ath	-9.49317455291748
▁trust	-9.493630409240723
▁formation	-9.493904113769531
▁dam	-9.495131492614746
▁progress	-9.495145797729492
▁offered	-9.496055603027344
ese	-9.496854782104492
▁flight	-9.497056007385254
▁congress	-9.498017311096191
▁garden	-9.498205184936523
▁queen	-9.498702049255371
▁memory	-9.498905181884766
press	-9.499723434448242
▁traffic	-9.499990463256836
▁oh	-9.50085735321045
▁knew	-9.500870704650879
▁passed	-9.50151538848877
ble	-9.502277374267578
▁speech	-9.503944396972656
▁compared	-9.50440502166748
▁soldiers	-9.504615783691406
▁happened	-9.505151748657227
▁castle	-9.505739212036133
▁root	-9.505805969238281
zo	-9.507197380065918
▁recommend	-9.507250785827637
▁leaders	-9.507739067077637
▁decades	-9.508216857910156
▁tree	-9.50856876373291
town	-9.508788108825684
▁internet	-9.509930610656738
▁pack	-9.512187004089355
▁mono	-9.512442588806152
▁shift	-9.51247787475586
▁fly	-9.512487411499023
▁escape	-9.512598991394043
▁rome	-9.51285457611084
▁multi	-9.512985229492188
tric	-9.513544082641602
▁stu	-9.514322280883789
▁classical	-9.514633178710938
▁sto	-9.514708518981934
▁canada	-9.515037536621094
▁glo	-9.51518440246582
▁characters	-9.51549243927002
▁campus	-9.516294479370117
my	-9.516685485839844
▁giving	-9.517254829406738
▁student	-9.517334938049316
▁fast	-9.517781257629395
▁efforts	-9.51892375946045
▁context	-9.519026756286621
▁dog	-9.519091606140137
▁han	-9.520838737487793
▁cro	-9.521409034729004
▁slave	-9.521413803100586
▁parties	-9.52147102355957
▁recently	-9.521498680114746
▁dry	-9.521856307983398
tz	-9.521864891052246
▁staff	-9.52198600769043
▁launch	-9.522612571716309
▁easily	-9.52305793762207
▁repeat	-9.523107528686523
▁judge	-9.524045944213867
low	-9.524153709411621
▁creating	-9.524375915527344
▁log	-9.524994850158691
▁becoming	-9.525127410888672
▁improve	-9.525625228881836
▁sin	-9.525760650634766
▁interesting	-9.525789260864258
pu	-9.525934219360352
▁govern	-9.525935173034668
▁weeks	-9.52595329284668
▁flo	-9.526067733764648
ien	-9.52613353729248
▁determine	-9.526263236999512
▁distribution	-9.527780532836914
▁advance	-9.528392791748047
▁reference	-9.52884578704834
▁map	-9.529675483703613
▁foundation	-9.529807090759277
▁reduced	-9.53010368347168
▁exhibit	-9.530263900756836
▁depict	-9.530267715454102
pen	-9.530445098876953
▁eth	-9.53079605102539
▁rank	-9.530801773071289
▁establish	-9.530949592590332
▁snow	-9.531631469726562
▁particle	-9.532806396484375
▁arms	-9.533562660217285
▁count	-9.53438949584961
ping	-9.534568786621094
▁importance	-9.536112785339355
ju	-9.536816596984863
af	-9.536855697631836
▁agreement	-9.536953926086426
▁feeling	-9.53729248046875
▁football	-9.5372953414917
▁huge	-9.53738784790039
▁goes	-9.53769588470459
▁bal	-9.537888526916504
▁moral	-9.538190841674805
▁sex	-9.538689613342285
▁prominent	-9.538890838623047
▁extend	-9.539254188537598
▁scholars	-9.5398530960083
▁imm	-9.539892196655273
▁refused	-9.540404319763184
▁sale	-9.541489601135254
▁predict	-9.542415618896484
▁published	-9.543266296386719
▁nations	-9.544143676757812
▁phase	-9.544326782226562
til	-9.544363975524902
▁buy	-9.54610538482666
▁correspond	-9.54736042022705
▁suggested	-9.548616409301758
▁functions	-9.548931121826172
▁hours	-9.549041748046875
▁stock	-9.549853324890137
▁records	-9.550689697265625
▁push	-9.551671028137207
▁ty	-9.553413391113281
▁instance	-9.553423881530762
▁definition	-9.554281234741211
▁except	-9.554730415344238
▁gla	-9.55499267578125
ken	-9.55545711517334
▁perhaps	-9.556831359863281
cri	-9.557120323181152
▁historian	-9.557302474975586
▁cli	-9.557403564453125
▁speak	-9.561005592346191
▁shi	-9.562687873840332
▁roll	-9.563066482543945
▁older	-9.564242362976074
▁studio	-9.565000534057617
▁rail	-9.566960334777832
▁flood	-9.567317008972168
▁accepted	-9.56735897064209
▁stress	-9.568058013916016
▁master	-9.568276405334473
▁proper	-9.568771362304688
▁dig	-9.569319725036621
▁pair	-9.570548057556152
▁cancer	-9.570917129516602
▁effort	-9.571199417114258
▁cat	-9.571487426757812
▁executive	-9.572032928466797
▁assist	-9.573770523071289
▁preserve	-9.574254035949707
▁depending	-9.574321746826172
ino	-9.57442855834961
▁recording	-9.574604034423828
▁mine	-9.574673652648926
▁recorded	-9.575067520141602
▁everyone	-9.575088500976562
▁retain	-9.575358390808105
▁movie	-9.575636863708496
▁facilities	-9.576519966125488
▁treat	-9.576781272888184
▁mid	-9.577146530151367
▁hol	-9.577393531799316
▁conversation	-9.577706336975098
ace	-9.57888126373291
▁desire	-9.57925033569336
ria	-9.579337120056152
▁harm	-9.579679489135742
▁reserve	-9.580275535583496
▁mag	-9.580493927001953
▁warm	-9.580657005310059
▁eva	-9.581334114074707
matic	-9.581406593322754
▁sector	-9.581510543823242
▁downtown	-9.581949234008789
▁sequence	-9.581979751586914
▁removed	-9.582090377807617
▁frank	-9.582246780395508
▁motion	-9.582747459411621
▁wrong	-9.58341121673584
▁trees	-9.584052085876465
▁fine	-9.584680557250977
▁agricultural	-9.585078239440918
▁freedom	-9.58556842803955
▁reading	-9.585866928100586
▁latter	-9.585875511169434
▁feed	-9.586185455322266
▁resistance	-9.586479187011719
▁useful	-9.586488723754883
▁trial	-9.586549758911133
▁myth	-9.587333679199219
▁businesses	-9.587671279907227
▁expected	-9.587714195251465
▁literature	-9.590105056762695
berg	-9.591056823730469
▁discovered	-9.591313362121582
▁cycle	-9.591988563537598
▁sla	-9.592451095581055
▁mental	-9.592808723449707
▁wait	-9.593673706054688
ivity	-9.594346046447754
▁argued	-9.595071792602539
▁james	-9.595260620117188
▁serves	-9.595425605773926
▁digital	-9.595643997192383
▁ur	-9.595815658569336
▁ensure	-9.597187042236328
▁agent	-9.59848403930664
▁republican	-9.599041938781738
▁opposed	-9.599388122558594
▁doctor	-9.600258827209473
har	-9.601602554321289
▁japan	-9.601856231689453
▁mechanism	-9.601932525634766
▁fat	-9.602885246276855
▁pretty	-9.603403091430664
mate	-9.60466480255127
gar	-9.60550308227539
▁combination	-9.605581283569336
▁phone	-9.606019020080566
ade	-9.606510162353516
▁initial	-9.606522560119629
▁raised	-9.60661506652832
▁emerge	-9.606635093688965
▁respond	-9.607288360595703
▁canal	-9.60742473602295
▁message	-9.60755443572998
cep	-9.607595443725586
▁technical	-9.608264923095703
▁minor	-9.608711242675781
▁units	-9.609288215637207
▁heard	-9.610355377197266
▁flat	-9.610550880432129
▁weather	-9.610733985900879
light	-9.611347198486328
ica	-9.612077713012695
▁sleep	-9.612184524536133
▁motor	-9.612204551696777
▁mode	-9.613321304321289
▁painting	-9.613446235656738
▁flag	-9.613927841186523
▁opportunity	-9.614638328552246
▁cata	-9.614927291870117
aw	-9.615030288696289
▁variation	-9.61636734008789
▁constitution	-9.6165132522583
▁leaving	-9.61661434173584
▁california	-9.617100715637207
▁y	-9.617663383483887
lia	-9.618697166442871
ogen	-9.619926452636719
▁finish	-9.62006950378418
▁divided	-9.620088577270508
▁appearance	-9.620126724243164
▁chain	-9.620444297790527
top	-9.620599746704102
▁drink	-9.621554374694824
▁techniques	-9.621664047241211
▁easy	-9.622797012329102
▁cook	-9.622841835021973
▁determined	-9.623356819152832
▁differences	-9.623412132263184
▁meant	-9.62453556060791
vin	-9.625018119812012
▁visual	-9.62555980682373
▁lay	-9.625761985778809
▁pal	-9.625822067260742
▁pull	-9.626763343811035
▁rural	-9.627403259277344
▁stream	-9.62775993347168
▁sim	-9.627822875976562
atory	-9.628137588500977
▁favor	-9.628193855285645
▁whatever	-9.628775596618652
▁income	-9.629133224487305
▁strength	-9.629532814025879
▁spa	-9.629551887512207
▁mentioned	-9.630105018615723
cin	-9.630166053771973
▁ended	-9.630234718322754
▁electric	-9.631525039672852
▁setting	-9.631715774536133
▁file	-9.631802558898926
▁decrease	-9.63225269317627
▁bodies	-9.632524490356445
▁representative	-9.632791519165039
bil	-9.63288402557373
▁folk	-9.633149147033691
▁actor	-9.63403034210205
▁ethnic	-9.634732246398926
▁muslim	-9.635009765625
▁fundamental	-9.63551139831543
▁val	-9.63569450378418
▁check	-9.637022018432617
▁tre	-9.637413024902344
bar	-9.637728691101074
▁ultimately	-9.638327598571777
right	-9.63852596282959
▁grant	-9.639993667602539
▁tur	-9.640349388122559
▁remaining	-9.64062213897705
▁agriculture	-9.641051292419434
▁fully	-9.641891479492188
▁creation	-9.642906188964844
rin	-9.642934799194336
▁review	-9.643038749694824
▁latin	-9.643315315246582
stone	-9.643668174743652
▁perfect	-9.643752098083496
▁corner	-9.643982887268066
▁occurs	-9.644148826599121
▁extremely	-9.644307136535645
▁expect	-9.644339561462402
▁core	-9.644943237304688
▁save	-9.645060539245605
▁agreed	-9.645407676696777
▁differ	-9.645472526550293
▁paint	-9.645940780639648
▁ski	-9.646849632263184
▁relations	-9.647518157958984
▁appeal	-9.647908210754395
▁universe	-9.64840030670166
▁resulted	-9.648430824279785
▁rain	-9.649654388427734
▁engineering	-9.650352478027344
▁developing	-9.650461196899414
▁purchase	-9.650949478149414
▁artists	-9.652351379394531
win	-9.652548789978027
▁safety	-9.652656555175781
▁spar	-9.653861045837402
▁tools	-9.653962135314941
▁domestic	-9.654011726379395
hood	-9.65569019317627
▁covered	-9.656169891357422
▁pra	-9.656349182128906
dor	-9.656472206115723
▁municipal	-9.658103942871094
▁saying	-9.658195495605469
▁lord	-9.659493446350098
▁ago	-9.660046577453613
▁floor	-9.660046577453613
▁permanent	-9.660170555114746
ib	-9.66026782989502
▁tower	-9.660452842712402
▁request	-9.661211967468262
▁salt	-9.661714553833008
▁cle	-9.661910057067871
▁architecture	-9.66490650177002
▁chance	-9.665132522583008
pping	-9.665514945983887
▁philosophy	-9.666106224060059
▁citizens	-9.666979789733887
▁myself	-9.667142868041992
▁crop	-9.667403221130371
▁owned	-9.668778419494629
▁defense	-9.669479370117188
▁processes	-9.669602394104004
▁southeast	-9.669729232788086
▁compound	-9.670491218566895
▁extra	-9.670685768127441
▁ter	-9.671034812927246
▁window	-9.671520233154297
▁neuro	-9.671695709228516
▁photograph	-9.67238998413086
▁italian	-9.672515869140625
▁nine	-9.673929214477539
▁affected	-9.674108505249023
▁joined	-9.674205780029297
▁comment	-9.67548942565918
pha	-9.676426887512207
▁glass	-9.676980018615723
lor	-9.677130699157715
▁borough	-9.67736530303955
▁imperial	-9.677566528320312
▁application	-9.678156852722168
▁australia	-9.67882251739502
▁dispute	-9.679150581359863
▁minute	-9.67975902557373
▁ideal	-9.680654525756836
▁finding	-9.680699348449707
▁justice	-9.68108081817627
▁script	-9.681400299072266
▁constructed	-9.68234920501709
▁electron	-9.682666778564453
▁thr	-9.682720184326172
▁paul	-9.68430233001709
▁bond	-9.685173988342285
▁referred	-9.685185432434082
lk	-9.685604095458984
▁hum	-9.687769889831543
▁increasingly	-9.688241004943848
▁sm	-9.688879013061523
▁providing	-9.689154624938965
▁teacher	-9.689268112182617
▁opposition	-9.691088676452637
▁rare	-9.691763877868652
▁independence	-9.692337989807129
▁sym	-9.692745208740234
▁actual	-9.693549156188965
▁bro	-9.693724632263184
▁drain	-9.695536613464355
▁brown	-9.696084022521973
▁rh	-9.696205139160156
▁argument	-9.697668075561523
▁article	-9.697959899902344
▁uk	-9.698923110961914
zz	-9.699435234069824
▁institutions	-9.699787139892578
▁suffer	-9.70032787322998
▁applications	-9.700541496276855
▁churches	-9.701287269592285
▁reg	-9.701759338378906
▁girl	-9.701979637145996
▁dan	-9.703291893005371
▁hy	-9.70346736907959
▁washington	-9.703563690185547
▁colon	-9.703654289245605
▁exercise	-9.70490837097168
▁spin	-9.705120086669922
▁identity	-9.705177307128906
▁implement	-9.705188751220703
▁occasion	-9.705479621887207
▁pet	-9.705976486206055
▁ble	-9.705985069274902
▁zo	-9.706552505493164
room	-9.706555366516113
▁fruit	-9.707341194152832
▁sit	-9.708178520202637
▁alter	-9.708491325378418
▁tim	-9.708575248718262
▁expansion	-9.708683013916016
▁option	-9.708727836608887
fin	-9.708839416503906
▁politics	-9.709223747253418
▁bull	-9.709792137145996
▁der	-9.709820747375488
▁extended	-9.710159301757812
▁regarded	-9.710359573364258
▁northwest	-9.711111068725586
▁solid	-9.711630821228027
▁distinguish	-9.712201118469238
▁teaching	-9.712380409240723
▁adopted	-9.712728500366211
▁apparent	-9.71274471282959
▁existence	-9.713889122009277
▁element	-9.714193344116211
▁unable	-9.714699745178223
▁distinct	-9.714728355407715
▁contemporary	-9.714916229248047
▁q	-9.715041160583496
▁discuss	-9.716059684753418
▁argue	-9.71654987335205
▁represented	-9.717169761657715
▁asia	-9.717313766479492
struc	-9.717790603637695
▁march	-9.718762397766113
▁exception	-9.719021797180176
▁wing	-9.720932006835938
▁combined	-9.721446990966797
▁murder	-9.721465110778809
▁operated	-9.721891403198242
▁marked	-9.72244644165039
▁transfer	-9.722640991210938
▁wish	-9.724261283874512
▁pop	-9.724441528320312
▁broadcast	-9.724818229675293
▁transportation	-9.72627067565918
▁italy	-9.72639274597168
▁destroyed	-9.72764778137207
▁operates	-9.727699279785156
▁double	-9.728616714477539
ncy	-9.730351448059082
▁register	-9.731365203857422
▁apply	-9.731382369995117
▁belong	-9.73144245147705
▁photo	-9.731786727905273
▁academic	-9.731914520263672
▁causing	-9.73251724243164
▁appeared	-9.733206748962402
▁lock	-9.733597755432129
▁regime	-9.734618186950684
▁principal	-9.7346830368042
▁opening	-9.734736442565918
hold	-9.734824180603027
▁investment	-9.736307144165039
▁enable	-9.736506462097168
▁pacific	-9.736637115478516
▁notable	-9.737133979797363
▁subsequently	-9.73825740814209
▁paid	-9.73829460144043
▁suit	-9.738449096679688
ox	-9.738555908203125
▁fighting	-9.738876342773438
▁christ	-9.739129066467285
▁settlers	-9.739340782165527
▁shared	-9.739622116088867
▁sought	-9.73973274230957
▁policies	-9.740245819091797
shire	-9.7408447265625
▁sport	-9.740950584411621
▁otherwise	-9.7410888671875
▁height	-9.742042541503906
▁recognized	-9.742341995239258
▁pin	-9.742522239685059
▁molecule	-9.742756843566895
▁saint	-9.743101119995117
▁concert	-9.743598937988281
▁none	-9.743637084960938
▁overall	-9.74394702911377
▁rapid	-9.744903564453125
▁firm	-9.746191024780273
▁entirely	-9.747186660766602
rie	-9.74793529510498
▁appointed	-9.748542785644531
▁prove	-9.749312400817871
▁closely	-9.749720573425293
▁reality	-9.750140190124512
▁reached	-9.750447273254395
▁shop	-9.750475883483887
▁hotel	-9.750627517700195
▁estate	-9.750864028930664
▁cult	-9.751373291015625
▁crew	-9.751580238342285
▁clean	-9.752060890197754
▁pho	-9.752817153930664
▁operating	-9.75286865234375
▁centuries	-9.752870559692383
ologist	-9.752931594848633
▁throw	-9.753009796142578
▁counter	-9.75320053100586
▁bell	-9.753727912902832
▁calculat	-9.753924369812012
▁medicine	-9.75400161743164
▁wal	-9.754924774169922
▁weapons	-9.755369186401367
▁affair	-9.75542163848877
▁sister	-9.755888938903809
▁drop	-9.75619888305664
▁disorder	-9.756267547607422
▁significantly	-9.757537841796875
▁closed	-9.758044242858887
jo	-9.759389877319336
▁academy	-9.760239601135254
▁leadership	-9.760485649108887
▁heavily	-9.760523796081543
▁volume	-9.76054573059082
▁switch	-9.760808944702148
▁express	-9.76159381866455
▁crown	-9.761960983276367
▁sco	-9.763317108154297
phy	-9.763376235961914
▁spot	-9.764185905456543
▁gather	-9.765082359313965
▁observed	-9.7657470703125
▁symptoms	-9.765944480895996
▁trip	-9.765971183776855
▁controlled	-9.766389846801758
▁studied	-9.766806602478027
▁manager	-9.767558097839355
▁electronic	-9.767635345458984
▁ku	-9.76842975616455
▁critics	-9.768571853637695
▁liberal	-9.768664360046387
▁dutch	-9.768841743469238
▁score	-9.769989013671875
▁balance	-9.770082473754883
▁hair	-9.770191192626953
▁door	-9.770795822143555
▁fishing	-9.771233558654785
▁indigenous	-9.771395683288574
▁orbit	-9.771516799926758
▁draw	-9.771530151367188
▁owner	-9.772430419921875
▁solve	-9.772558212280273
▁blo	-9.774466514587402
▁muscle	-9.77458667755127
▁shoot	-9.776021003723145
▁violence	-9.776876449584961
▁focused	-9.776885032653809
phe	-9.777353286743164
▁candidate	-9.777743339538574
▁dna	-9.777767181396484
▁dar	-9.77817153930664
▁david	-9.778336524963379
▁silver	-9.77856731414795
▁arrest	-9.778940200805664
▁bishop	-9.779192924499512
▁external	-9.779481887817383
osis	-9.780330657958984
▁coach	-9.780784606933594
▁page	-9.780912399291992
▁married	-9.78125286102295
▁agree	-9.78132152557373
▁interested	-9.781457901000977
▁alone	-9.781841278076172
▁extreme	-9.782712936401367
▁identify	-9.782967567443848
▁interaction	-9.783184051513672
▁subsequent	-9.783297538757324
poli	-9.784285545349121
▁existing	-9.784432411193848
▁pope	-9.785659790039062
cies	-9.785942077636719
▁pat	-9.788291931152344
▁non	-9.789069175720215
▁showed	-9.78952693939209
▁shore	-9.790412902832031
▁scientists	-9.791528701782227
▁hunt	-9.791665077209473
▁string	-9.791932106018066
path	-9.792909622192383
▁stated	-9.793341636657715
▁chamber	-9.79350757598877
▁participate	-9.794087409973145
▁faith	-9.79409408569336
▁expand	-9.794203758239746
▁criminal	-9.794676780700684
air	-9.79510498046875
▁sustain	-9.79526424407959
▁liber	-9.795287132263184
▁solar	-9.795350074768066
▁conservative	-9.796149253845215
▁coal	-9.796866416931152
▁fiction	-9.797040939331055
▁sugar	-9.797605514526367
▁northeast	-9.79761791229248
▁onto	-9.797779083251953
▁react	-9.797860145568848
▁specifically	-9.798003196716309
▁ze	-9.798215866088867
▁lin	-9.7983980178833
illa	-9.798468589782715
▁tissue	-9.798510551452637
▁texas	-9.799102783203125
▁tourist	-9.799636840820312
▁hero	-9.799781799316406
ette	-9.799970626831055
▁ear	-9.800074577331543
▁robert	-9.800116539001465
▁engineer	-9.80103588104248
▁gate	-9.80106258392334
▁theatre	-9.801190376281738
▁sam	-9.802595138549805
▁earn	-9.80270004272461
▁composed	-9.802969932556152
▁secondary	-9.803234100341797
▁wonder	-9.80416202545166
▁identified	-9.804439544677734
▁choose	-9.805267333984375
▁russia	-9.805743217468262
▁guide	-9.806870460510254
▁brief	-9.807571411132812
▁transform	-9.808449745178223
▁historically	-9.808850288391113
▁moon	-9.809133529663086
▁universal	-9.809207916259766
▁proved	-9.80955982208252
▁mont	-9.809743881225586
▁consequence	-9.809804916381836
cha	-9.80986213684082
▁monarch	-9.810704231262207
▁dream	-9.811012268066406
▁steel	-9.81104850769043
▁characterized	-9.811470031738281
▁brand	-9.812643051147461
▁strip	-9.813556671142578
▁marine	-9.813840866088867
▁reign	-9.814336776733398
▁mary	-9.814465522766113
▁restrict	-9.815765380859375
▁struggle	-9.815801620483398
▁formula	-9.816884994506836
▁ken	-9.81707763671875
▁mouth	-9.818941116333008
▁managed	-9.818954467773438
▁starting	-9.819061279296875
▁background	-9.821162223815918
ob	-9.821836471557617
▁attempted	-9.822541236877441
▁episode	-9.822742462158203
▁drum	-9.822760581970215
gate	-9.823185920715332
▁imagine	-9.823347091674805
▁cooper	-9.826391220092773
▁egg	-9.826728820800781
▁peter	-9.827082633972168
▁fresh	-9.827421188354492
▁convention	-9.827693939208984
▁statement	-9.82808780670166
▁circle	-9.828207969665527
▁composition	-9.829122543334961
▁practical	-9.829427719116211
▁advanced	-9.829513549804688
▁fri	-9.8295316696167
▁southwest	-9.830028533935547
▁explore	-9.830459594726562
▁slightly	-9.830649375915527
▁israel	-9.830757141113281
▁circuit	-9.831562042236328
▁mexico	-9.832172393798828
▁magic	-9.832266807556152
▁colonial	-9.833078384399414
▁classes	-9.83405590057373
▁restaurant	-9.83462142944336
▁notice	-9.835288047790527
▁defeat	-9.836938858032227
▁taught	-9.838006019592285
▁geo	-9.83819580078125
▁authorities	-9.838563919067383
▁magnetic	-9.838579177856445
▁municipality	-9.838623046875
▁ireland	-9.839037895202637
▁narrow	-9.839229583740234
▁occurred	-9.839629173278809
▁spirit	-9.839705467224121
▁confirm	-9.8401517868042
▁hop	-9.840815544128418
▁navy	-9.84109115600586
▁decline	-9.841096878051758
▁richard	-9.841595649719238
▁load	-9.841693878173828
▁producer	-9.842183113098145
ound	-9.842434883117676
▁fourth	-9.842558860778809
▁observation	-9.84292984008789
▁suffered	-9.843259811401367
▁secure	-9.84349536895752
▁administrative	-9.843855857849121
▁camera	-9.843982696533203
ute	-9.84483528137207
▁boundary	-9.845093727111816
▁transition	-9.845186233520508
▁conference	-9.84571361541748
▁korea	-9.845935821533203
▁basically	-9.846442222595215
▁assembly	-9.846953392028809
▁alcohol	-9.846954345703125
bel	-9.847431182861328
▁plate	-9.847719192504883
▁typical	-9.847865104675293
▁plane	-9.847949028015137
ji	-9.848753929138184
▁lose	-9.849295616149902
▁concentration	-9.849438667297363
▁everybody	-9.849749565124512
▁truth	-9.849836349487305
▁palace	-9.849845886230469
▁succeed	-9.850372314453125
▁metropolitan	-9.850683212280273
▁vast	-9.851664543151855
▁prefer	-9.851909637451172
▁changing	-9.851944923400879
▁sail	-9.85368824005127
▁tube	-9.853761672973633
▁publish	-9.85406494140625
▁sample	-9.854257583618164
▁opinion	-9.854430198669434
▁institute	-9.854523658752441
▁coastal	-9.856518745422363
▁vessel	-9.856622695922852
je	-9.856795310974121
▁variable	-9.857558250427246
▁colour	-9.857563018798828
▁opposite	-9.858184814453125
▁scar	-9.858275413513184
▁eliminat	-9.858499526977539
▁sufficient	-9.858811378479004
▁extent	-9.85883903503418
▁deposit	-9.85898208618164
▁announce	-9.859126091003418
▁ut	-9.859603881835938
▁democratic	-9.859701156616211
▁guitar	-9.861014366149902
▁recreation	-9.861019134521484
▁sho	-9.861804962158203
▁settled	-9.86187744140625
▁expert	-9.862628936767578
▁rapidly	-9.865543365478516
▁industries	-9.866374969482422
▁neighbor	-9.867259979248047
▁greatly	-9.867474555969238
▁protest	-9.867897987365723
▁hal	-9.868728637695312
▁passenger	-9.869226455688477
kh	-9.869227409362793
ibility	-9.869240760803223
▁normally	-9.87032699584961
▁fell	-9.871047973632812
chro	-9.871293067932129
▁vol	-9.87199592590332
▁platform	-9.873677253723145
▁frame	-9.874238014221191
▁expression	-9.87429428100586
pir	-9.874406814575195
▁maintained	-9.874675750732422
▁que	-9.875590324401855
▁substantial	-9.875909805297852
▁wheel	-9.876115798950195
▁planned	-9.876465797424316
▁husband	-9.876547813415527
▁statistical	-9.877507209777832
isation	-9.877769470214844
▁capacity	-9.880069732666016
▁logic	-9.880632400512695
▁liquid	-9.880716323852539
▁wire	-9.881025314331055
gene	-9.881036758422852
▁listed	-9.881317138671875
▁elementary	-9.881791114807129
▁morning	-9.882067680358887
▁paris	-9.882109642028809
▁hunting	-9.882272720336914
▁priest	-9.882298469543457
▁crystal	-9.882637977600098
▁frequency	-9.882637977600098
▁spo	-9.882654190063477
▁bone	-9.882802963256836
▁restore	-9.883275032043457
▁compete	-9.88444709777832
▁interview	-9.885313034057617
bury	-9.885591506958008
▁interpret	-9.886093139648438
▁considerable	-9.88631820678711
▁possibly	-9.886825561523438
▁split	-9.887175559997559
▁error	-9.887487411499023
▁parallel	-9.887797355651855
▁medieval	-9.88908863067627
▁rose	-9.890530586242676
▁neighborhood	-9.890772819519043
▁essential	-9.890851020812988
▁daily	-9.891386985778809
▁depression	-9.891682624816895
▁regulation	-9.891683578491211
hy	-9.89356803894043
▁ordered	-9.893733978271484
▁spain	-9.893916130065918
▁procedure	-9.893954277038574
▁intelligence	-9.894929885864258
▁opened	-9.895256996154785
▁beat	-9.895537376403809
otic	-9.896175384521484
▁certainly	-9.89621353149414
▁earliest	-9.896232604980469
war	-9.896424293518066
▁manufacturing	-9.89655876159668
▁corn	-9.896647453308105
og	-9.897151947021484
back	-9.897775650024414
▁fail	-9.89808464050293
▁hole	-9.898367881774902
ties	-9.898761749267578
▁beautiful	-9.898842811584473
▁pitch	-9.899564743041992
▁anyone	-9.900588035583496
▁theories	-9.901557922363281
▁tele	-9.90217113494873
▁desert	-9.902854919433594
▁uniform	-9.904086112976074
▁oxygen	-9.904413223266602
▁traditionally	-9.905760765075684
▁achieve	-9.90708065032959
▁consistent	-9.90761947631836
▁holding	-9.907624244689941
▁diver	-9.907795906066895
▁technique	-9.908208847045898
▁apart	-9.908297538757324
ua	-9.90906047821045
▁accident	-9.909355163574219
▁unknown	-9.909684181213379
ara	-9.911147117614746
▁sky	-9.911601066589355
▁holy	-9.912666320800781
▁flower	-9.912710189819336
▁electro	-9.913494110107422
▁continuous	-9.913656234741211
▁oldest	-9.914286613464355
▁bottom	-9.914319038391113
▁presented	-9.916129112243652
▁greatest	-9.91659927368164
▁select	-9.917370796203613
▁gained	-9.917670249938965
▁artist	-9.917707443237305
▁label	-9.91871452331543
▁diet	-9.919172286987305
▁michigan	-9.920310020446777
▁fur	-9.921224594116211
▁topic	-9.921587944030762
▁evolution	-9.921944618225098
▁canadian	-9.921987533569336
▁hydro	-9.922931671142578
oon	-9.924428939819336
metric	-9.924558639526367
▁electrical	-9.927037239074707
ux	-9.927079200744629
▁vision	-9.927857398986816
▁mild	-9.928873062133789
▁appropriate	-9.929027557373047
▁arc	-9.929137229919434
▁handle	-9.930392265319824
▁yourself	-9.930712699890137
off	-9.9314603805542
zi	-9.93154239654541
▁online	-9.933032035827637
▁proceed	-9.93346118927002
▁massive	-9.933722496032715
▁radiation	-9.934096336364746
▁promise	-9.934759140014648
▁web	-9.935420036315918
▁coin	-9.935647964477539
▁touch	-9.937520027160645
▁operate	-9.93757152557373
▁august	-9.937822341918945
▁widespread	-9.938501358032227
▁jump	-9.939006805419922
▁plot	-9.939615249633789
▁planning	-9.939637184143066
▁profit	-9.93989086151123
▁mineral	-9.940129280090332
▁discover	-9.942392349243164
▁edward	-9.94253921508789
▁housing	-9.943652153015137
▁output	-9.943974494934082
▁biological	-9.944819450378418
▁organized	-9.945279121398926
▁amazing	-9.947381019592285
▁landscape	-9.948066711425781
▁joint	-9.9482421875
ttle	-9.948319435119629
▁treaty	-9.948490142822266
▁demonstrate	-9.9490966796875
▁proportion	-9.949098587036133
▁atmosphere	-9.949442863464355
▁jurisdiction	-9.950471878051758
▁pot	-9.951733589172363
▁raise	-9.951746940612793
▁visible	-9.951900482177734
▁criticism	-9.952194213867188
▁wine	-9.952706336975098
▁legend	-9.952736854553223
▁accurate	-9.953228950500488
▁est	-9.953506469726562
▁opponent	-9.954263687133789
▁featured	-9.954880714416504
▁mixed	-9.956268310546875
▁atlantic	-9.956687927246094
▁spiritual	-9.957547187805176
▁algorithm	-9.957723617553711
▁heritage	-9.957733154296875
▁jews	-9.957891464233398
▁standing	-9.958797454833984
▁infrastructure	-9.959457397460938
▁pure	-9.961087226867676
▁armed	-9.96217155456543
▁poll	-9.962789535522461
▁favour	-9.96328353881836
▁arrived	-9.963738441467285
▁destroy	-9.964142799377441
▁bacteria	-9.964330673217773
▁farmers	-9.96552848815918
▁victory	-9.965960502624512
▁irish	-9.966874122619629
▁tourism	-9.966924667358398
▁gift	-9.967723846435547
▁smith	-9.968535423278809
▁rat	-9.968842506408691
▁adjacent	-9.96887493133545
▁chosen	-9.969077110290527
▁instruction	-9.969582557678223
▁fleet	-9.970382690429688
▁gender	-9.970484733581543
▁newspaper	-9.970979690551758
▁quo	-9.971729278564453
▁row	-9.973557472229004
▁intention	-9.973825454711914
▁interpretation	-9.973889350891113
▁shell	-9.976662635803223
▁soft	-9.97719669342041
▁peninsula	-9.978029251098633
▁efficient	-9.97873592376709
▁quarter	-9.978744506835938
▁vocal	-9.978752136230469
▁phil	-9.980507850646973
▁effectively	-9.980792045593262
▁encounter	-9.98086166381836
▁export	-9.982125282287598
▁expanded	-9.98253345489502
▁manner	-9.982647895812988
▁crisis	-9.982691764831543
▁infection	-9.983036994934082
▁physics	-9.98334789276123
▁linked	-9.98365306854248
▁neither	-9.985130310058594
▁straight	-9.986225128173828
▁louis	-9.986227989196777
▁sentence	-9.986440658569336
▁inspired	-9.987275123596191
▁australian	-9.98805046081543
▁equation	-9.988341331481934
▁sar	-9.989137649536133
▁kar	-9.989867210388184
▁determin	-9.989928245544434
▁transmit	-9.990386962890625
▁perspective	-9.990484237670898
▁drag	-9.990538597106934
▁buried	-9.99053955078125
▁experienced	-9.99059009552002
▁adopt	-9.990951538085938
▁victim	-9.991201400756836
▁habitat	-9.991250991821289
▁cloud	-9.99168872833252
▁angle	-9.991937637329102
▁counties	-9.992199897766113
▁storm	-9.992707252502441
▁humid	-9.99353313446045
▁supposed	-9.993736267089844
▁rejected	-9.993810653686523
▁occasionally	-9.994027137756348
▁contribution	-9.994430541992188
▁measurement	-9.994470596313477
▁improved	-9.994561195373535
▁senate	-9.994829177856445
▁fashion	-9.995152473449707
▁consumer	-9.995687484741211
▁thomas	-9.996230125427246
▁resist	-9.996867179870605
▁discussion	-9.998093605041504
▁fluid	-9.998332977294922
▁captured	-9.998611450195312
▁institution	-9.999144554138184
bert	-9.999197959899902
▁expressed	-9.999333381652832
▁dialect	-10.000201225280762
position	-10.000635147094727
▁derived	-10.000932693481445
▁refuge	-10.002372741699219
▁luc	-10.002912521362305
▁dynasty	-10.003096580505371
▁dedicated	-10.003098487854004
▁strongly	-10.00367259979248
▁virtual	-10.003822326660156
▁ye	-10.003880500793457
▁tea	-10.003972053527832
▁za	-10.004209518432617
▁sudden	-10.004552841186523
▁nucle	-10.005088806152344
▁delay	-10.005182266235352
▁ol	-10.005814552307129
▁treated	-10.006118774414062
point	-10.006217002868652
▁suburb	-10.007100105285645
▁obtain	-10.007247924804688
▁protected	-10.007665634155273
▁testing	-10.008014678955078
▁invasion	-10.008563041687012
▁portray	-10.008563041687012
▁investigation	-10.009281158447266
▁combat	-10.009308815002441
▁highway	-10.009505271911621
bro	-10.009912490844727
▁corporation	-10.010010719299316
▁incident	-10.010011672973633
▁memorial	-10.010011672973633
▁tw	-10.011523246765137
▁orchestra	-10.012206077575684
▁yellow	-10.01257038116455
▁realized	-10.012882232666016
▁corps	-10.012883186340332
▁assess	-10.01380443572998
▁convince	-10.01477336883545
▁labour	-10.014774322509766
q	-10.015097618103027
mbl	-10.015113830566406
▁copy	-10.015192031860352
▁improvement	-10.015220642089844
▁thick	-10.015562057495117
▁lift	-10.015893936157227
▁programme	-10.016276359558105
▁fixed	-10.016960144042969
▁mining	-10.017857551574707
▁dynamic	-10.019182205200195
▁enemy	-10.019186973571777
ola	-10.01921558380127
▁baby	-10.01928997039795
▁column	-10.021764755249023
▁interior	-10.022146224975586
▁grade	-10.023176193237305
▁outcome	-10.02404499053955
▁quantum	-10.0243558883667
ama	-10.02463436126709
▁concerned	-10.02489948272705
▁speaker	-10.02511978149414
▁decide	-10.026016235351562
▁strike	-10.026220321655273
▁oak	-10.026687622070312
▁meat	-10.027015686035156
▁senior	-10.027698516845703
▁mathematical	-10.028810501098633
▁substance	-10.02881145477295
▁meta	-10.029535293579102
▁poet	-10.029707908630371
▁expensive	-10.029927253723145
▁bound	-10.031378746032715
▁situated	-10.031418800354004
▁wound	-10.03162956237793
▁strategy	-10.031790733337402
▁dramatic	-10.03221607208252
▁gradually	-10.033658981323242
▁remove	-10.033888816833496
▁stretch	-10.034032821655273
▁dress	-10.034151077270508
▁cave	-10.035249710083008
phone	-10.035746574401855
▁driver	-10.036230087280273
▁ridge	-10.036477088928223
▁mathematics	-10.036654472351074
▁parent	-10.036746978759766
▁zero	-10.036816596984863
▁observe	-10.037306785583496
ura	-10.038788795471191
▁tha	-10.038798332214355
▁mechanical	-10.038908958435059
▁granted	-10.039010047912598
▁headquarters	-10.03965950012207
▁collapse	-10.039665222167969
bol	-10.04024600982666
▁monitor	-10.040793418884277
▁interact	-10.041144371032715
▁parish	-10.041558265686035
▁teach	-10.042341232299805
place	-10.042350769042969
▁facility	-10.043050765991211
▁random	-10.04305648803711
▁bass	-10.043395042419434
▁easier	-10.043806076049805
▁charter	-10.045828819274902
▁happy	-10.046079635620117
▁abandoned	-10.046958923339844
▁rival	-10.047449111938477
▁opportunities	-10.047590255737305
▁understood	-10.047968864440918
▁sau	-10.048213005065918
▁mix	-10.048970222473145
▁reputation	-10.04910945892334
▁exposure	-10.050627708435059
▁define	-10.05073070526123
▁producing	-10.051008224487305
▁advice	-10.051770210266113
▁unusual	-10.052152633666992
▁exact	-10.05261516571045
▁peak	-10.053863525390625
▁younger	-10.054741859436035
▁worth	-10.055018424987793
▁frequent	-10.05604362487793
▁items	-10.056047439575195
▁fill	-10.056486129760742
▁surrounded	-10.057108879089355
▁consul	-10.058256149291992
▁emi	-10.058808326721191
▁cup	-10.060103416442871
▁chicago	-10.060564994812012
▁polar	-10.061785697937012
▁input	-10.062019348144531
▁pilot	-10.062910079956055
▁craft	-10.062955856323242
▁occupied	-10.063642501831055
▁farming	-10.063737869262695
▁tank	-10.06463623046875
▁ignor	-10.065215110778809
▁ride	-10.065312385559082
▁achieved	-10.065449714660645
▁import	-10.06554126739502
▁drawing	-10.065714836120605
▁rub	-10.066307067871094
▁fought	-10.066346168518066
▁estimate	-10.066741943359375
▁researchers	-10.066851615905762
▁grave	-10.06696891784668
▁naval	-10.067052841186523
▁trace	-10.06712818145752
▁gone	-10.068235397338867
▁journey	-10.068276405334473
▁tail	-10.068323135375977
▁py	-10.068482398986816
▁shortly	-10.068838119506836
volving	-10.069050788879395
▁somewhat	-10.069437980651855
▁poverty	-10.069438934326172
▁strict	-10.069499969482422
sky	-10.069625854492188
▁somebody	-10.069828033447266
▁contributed	-10.070137023925781
▁responsibility	-10.07215404510498
▁emotional	-10.072892189025879
▁finance	-10.073331832885742
▁diverse	-10.073689460754395
▁lie	-10.074274063110352
▁extract	-10.074533462524414
▁visitors	-10.076552391052246
▁theater	-10.076666831970215
▁supreme	-10.077219009399414
▁advocate	-10.077609062194824
▁serving	-10.07801628112793
▁curve	-10.078348159790039
▁stable	-10.079475402832031
▁witness	-10.080353736877441
▁prepared	-10.080489158630371
▁conclude	-10.08230972290039
▁completed	-10.082536697387695
ograph	-10.082648277282715
▁proposal	-10.083096504211426
▁civilian	-10.08385181427002
▁speaking	-10.083877563476562
▁decade	-10.084930419921875
▁encouraged	-10.085783004760742
▁selection	-10.086329460144043
▁broke	-10.086859703063965
▁prohibit	-10.087030410766602
▁additionally	-10.087444305419922
▁faster	-10.088093757629395
▁golden	-10.089000701904297
▁capture	-10.089037895202637
▁ritual	-10.0894136428833
▁opera	-10.089499473571777
▁conducted	-10.089695930480957
▁secretary	-10.089754104614258
▁impossible	-10.089795112609863
▁iii	-10.090206146240234
▁basin	-10.090977668762207
▁employed	-10.092846870422363
▁seal	-10.093003273010254
▁recognize	-10.093155860900879
▁hyper	-10.093238830566406
stein	-10.094297409057617
▁orthodox	-10.09534740447998
book	-10.095756530761719
uch	-10.0969820022583
script	-10.097764015197754
▁excess	-10.098947525024414
▁session	-10.099376678466797
▁defeated	-10.099571228027344
▁passage	-10.101117134094238
▁absorb	-10.101330757141113
▁literary	-10.102132797241211
most	-10.102296829223633
▁ruler	-10.10276985168457
▁representation	-10.102802276611328
▁genre	-10.103144645690918
▁format	-10.103947639465332
▁communist	-10.104137420654297
▁taxes	-10.104145050048828
▁emergency	-10.10423469543457
▁bright	-10.105012893676758
▁celebrate	-10.105339050292969
▁dollar	-10.105372428894043
▁broken	-10.105377197265625
▁virginia	-10.106217384338379
▁evolved	-10.106549263000488
▁crowd	-10.10656452178955
▁necessarily	-10.10735034942627
▁objective	-10.107481002807617
▁capable	-10.109356880187988
chan	-10.10962963104248
▁grain	-10.110387802124023
▁spoken	-10.110840797424316
▁raid	-10.110891342163086
comp	-10.111138343811035
▁esc	-10.112356185913086
▁creative	-10.112695693969727
▁destination	-10.113000869750977
▁breath	-10.113058090209961
▁dangerous	-10.114120483398438
▁attended	-10.115010261535645
▁contest	-10.115094184875488
▁mention	-10.115989685058594
▁possibility	-10.11624526977539
▁j	-10.116869926452637
▁satellite	-10.117056846618652
▁monument	-10.117059707641602
▁rarely	-10.117236137390137
dale	-10.117762565612793
▁popularity	-10.118063926696777
▁discipline	-10.118276596069336
▁possess	-10.118501663208008
▁analog	-10.120393753051758
▁radical	-10.121794700622559
▁exposed	-10.122364044189453
▁attached	-10.122614860534668
▁construct	-10.122937202453613
▁tv	-10.123146057128906
▁boundaries	-10.123255729675293
▁density	-10.123284339904785
▁egyptian	-10.124177932739258
▁cycl	-10.124387741088867
▁cotton	-10.124860763549805
▁establishment	-10.125714302062988
▁fellow	-10.125785827636719
▁franc	-10.126782417297363
▁elect	-10.127028465270996
▁functional	-10.127229690551758
▁volunteer	-10.12726879119873
▁loyal	-10.128170013427734
▁steam	-10.128670692443848
▁climb	-10.129446983337402
▁worship	-10.130149841308594
▁cable	-10.130416870117188
▁trading	-10.13179874420166
plan	-10.132121086120605
▁sharp	-10.133622169494629
▁retreat	-10.134698867797852
▁stem	-10.135390281677246
▁incorporated	-10.135916709899902
▁obtained	-10.136585235595703
▁wherea	-10.137323379516602
▁clearly	-10.13792896270752
▁encourage	-10.138071060180664
▁poetry	-10.13835334777832
▁virus	-10.138571739196777
▁realize	-10.138904571533203
▁contribute	-10.140161514282227
▁hydrogen	-10.140300750732422
▁pol	-10.143657684326172
▁sir	-10.144440650939941
▁jack	-10.145100593566895
▁poem	-10.14519214630127
▁mol	-10.145784378051758
▁selected	-10.147430419921875
▁superior	-10.147603988647461
▁essentially	-10.148245811462402
▁provision	-10.148431777954102
▁budget	-10.149693489074707
sign	-10.150223731994629
load	-10.150428771972656
▁survey	-10.150538444519043
▁mistake	-10.15054702758789
▁approximately	-10.151069641113281
▁guess	-10.15237045288086
▁scheme	-10.153074264526367
bul	-10.153776168823242
▁ready	-10.155335426330566
▁baseball	-10.156434059143066
▁tunnel	-10.158123970031738
▁unincorporated	-10.158547401428223
▁angeles	-10.15855884552002
▁defence	-10.158763885498047
▁grown	-10.158778190612793
▁pursue	-10.159036636352539
▁tape	-10.159506797790527
▁slo	-10.159551620483398
▁intellectual	-10.16024398803711
▁resembl	-10.160248756408691
▁revenue	-10.161942481994629
▁hub	-10.162914276123047
▁austria	-10.163251876831055
▁immigrant	-10.166629791259766
▁unless	-10.168733596801758
▁tension	-10.168758392333984
▁territories	-10.168766975402832
▁bow	-10.168830871582031
▁professor	-10.170051574707031
▁dominant	-10.17005729675293
▁por	-10.17066478729248
▁agency	-10.170832633972168
▁thousand	-10.171903610229492
▁manage	-10.172284126281738
▁michael	-10.174346923828125
▁trouble	-10.174347877502441
▁graduate	-10.174362182617188
▁allies	-10.174540519714355
▁robot	-10.174541473388672
▁twice	-10.174781799316406
▁educational	-10.175127029418945
▁schedule	-10.176507949829102
▁illegal	-10.17779541015625
▁precise	-10.178234100341797
▁thin	-10.178647994995117
▁florida	-10.179092407226562
▁emotion	-10.179576873779297
▁withdraw	-10.180825233459473
▁protestant	-10.181398391723633
▁filled	-10.181544303894043
▁hypo	-10.181840896606445
▁constitutional	-10.181857109069824
▁jackson	-10.182069778442383
▁reducing	-10.182129859924316
▁therapy	-10.182656288146973
▁license	-10.182992935180664
▁semi	-10.18358039855957
▁shock	-10.183730125427246
▁mari	-10.183821678161621
▁bowl	-10.185855865478516
▁yo	-10.185978889465332
▁polish	-10.186745643615723
▁hip	-10.186854362487793
▁gulf	-10.18691635131836
▁domain	-10.186942100524902
▁adjust	-10.187342643737793
▁concentrate	-10.188652038574219
▁slowly	-10.189075469970703
▁pool	-10.189316749572754
▁description	-10.189526557922363
▁noble	-10.189604759216309
▁vice	-10.189680099487305
▁alliance	-10.190013885498047
▁grass	-10.190574645996094
▁catch	-10.190675735473633
▁pump	-10.191849708557129
▁convert	-10.191856384277344
▁recognition	-10.192587852478027
▁islamic	-10.192607879638672
▁transmission	-10.194052696228027
▁website	-10.194806098937988
▁stick	-10.194873809814453
▁pipe	-10.19662094116211
▁duke	-10.196844100952148
▁drawn	-10.197507858276367
rich	-10.197654724121094
▁converted	-10.19784164428711
▁vietnam	-10.197861671447754
▁twenty	-10.198304176330566
▁commander	-10.198504447937012
▁medium	-10.198783874511719
▁cabinet	-10.19918441772461
▁accomplish	-10.199625015258789
▁smart	-10.200575828552246
▁entertainment	-10.201700210571289
▁debt	-10.201796531677246
▁extension	-10.202278137207031
▁statue	-10.202332496643066
▁scotland	-10.202725410461426
▁storage	-10.202728271484375
▁jersey	-10.203163146972656
▁pole	-10.203371047973633
▁milk	-10.205148696899414
▁recruit	-10.205381393432617
▁plastic	-10.205482482910156
▁dependent	-10.205621719360352
▁supplies	-10.205824851989746
▁throne	-10.206465721130371
▁finger	-10.20702838897705
▁transit	-10.207128524780273
▁comic	-10.20748233795166
▁generate	-10.208070755004883
▁prize	-10.208205223083496
▁stopped	-10.208453178405762
▁percent	-10.208515167236328
▁programming	-10.208574295043945
▁integrate	-10.208943367004395
▁abuse	-10.209623336791992
▁organic	-10.210021018981934
▁tip	-10.210145950317383
▁dimension	-10.210721969604492
▁nazi	-10.210986137390137
▁artificial	-10.21116828918457
▁circumstances	-10.212061882019043
▁spoke	-10.21219253540039
▁palm	-10.212592124938965
▁merchant	-10.212958335876465
▁hang	-10.213791847229004
▁surprise	-10.213851928710938
▁household	-10.215781211853027
▁conservation	-10.216094970703125
▁closer	-10.216476440429688
▁nevertheless	-10.21699047088623
▁corrupt	-10.216991424560547
▁reduction	-10.216995239257812
▁absolutely	-10.217140197753906
▁hindu	-10.217706680297852
▁partially	-10.21791934967041
▁repair	-10.218499183654785
▁christianity	-10.219033241271973
▁trend	-10.21905517578125
▁strategic	-10.21923828125
▁introduc	-10.219635009765625
▁technologies	-10.220139503479004
▁vac	-10.220382690429688
▁victoria	-10.22087287902832
▁feet	-10.221068382263184
▁gap	-10.2210693359375
▁declared	-10.221942901611328
▁mississippi	-10.222846031188965
▁dra	-10.222850799560547
▁apple	-10.223028182983398
▁tall	-10.223418235778809
▁draft	-10.223430633544922
▁discovery	-10.223824501037598
▁administer	-10.224202156066895
▁destruction	-10.224656105041504
▁mobile	-10.225117683410645
▁regularly	-10.225534439086914
▁occupation	-10.225561141967773
▁cattle	-10.226608276367188
▁arrangement	-10.227374076843262
▁doctrine	-10.227374076843262
▁egypt	-10.227620124816895
▁innovation	-10.228736877441406
▁pioneer	-10.228742599487305
▁nest	-10.229034423828125
▁chose	-10.229498863220215
▁controversial	-10.229645729064941
▁sitting	-10.229860305786133
▁reject	-10.229976654052734
▁distributed	-10.230094909667969
▁execute	-10.230101585388184
▁collective	-10.233172416687012
▁criticized	-10.233748435974121
▁chair	-10.234312057495117
▁equivalent	-10.234662055969238
▁uncertain	-10.234662055969238
▁biggest	-10.234665870666504
▁remote	-10.235130310058594
▁allied	-10.236322402954102
▁varies	-10.236495018005371
▁operator	-10.236709594726562
▁noise	-10.237293243408203
▁relation	-10.237524032592773
▁aware	-10.23752498626709
ida	-10.238407135009766
▁quick	-10.238778114318848
▁driving	-10.238784790039062
▁revolutionary	-10.23918342590332
▁exploit	-10.242464065551758
▁reverse	-10.242551803588867
▁organisation	-10.243178367614746
▁legislation	-10.243385314941406
▁generated	-10.243782043457031
▁orange	-10.243947982788086
▁colony	-10.245070457458496
▁declined	-10.246138572692871
▁exclusive	-10.248008728027344
▁advent	-10.249410629272461
▁rational	-10.249503135681152
cast	-10.249971389770508
▁laid	-10.250585556030273
▁branches	-10.250927925109863
▁avenue	-10.252185821533203
▁committed	-10.252187728881836
▁sovereign	-10.25265121459961
▁linear	-10.254316329956055
▁patron	-10.254990577697754
▁tract	-10.255117416381836
▁comfort	-10.255447387695312
power	-10.255752563476562
▁mammal	-10.255914688110352
▁passes	-10.256204605102539
▁belt	-10.257183074951172
▁enhance	-10.257320404052734
▁cathedral	-10.257784843444824
▁consumption	-10.257784843444824
▁retail	-10.257805824279785
▁diversity	-10.25784683227539
▁worse	-10.258337020874023
▁universities	-10.258720397949219
▁giant	-10.259832382202148
▁hour	-10.259958267211914
▁neck	-10.26147747039795
▁wil	-10.26253604888916
▁terminal	-10.262969017028809
▁disappear	-10.264355659484863
▁emphasis	-10.264355659484863
▁obviously	-10.264370918273926
▁insect	-10.264694213867188
▁blow	-10.265928268432617
▁driven	-10.266119956970215
▁israeli	-10.266684532165527
zar	-10.266958236694336
▁neutral	-10.26860237121582
▁martin	-10.268636703491211
▁elder	-10.269885063171387
▁rescue	-10.271602630615234
▁roof	-10.271941184997559
mission	-10.273028373718262
▁distinction	-10.273900985717773
▁valuable	-10.274771690368652
▁clock	-10.275090217590332
▁psychological	-10.275246620178223
▁continental	-10.275410652160645
▁maximum	-10.276554107666016
▁joseph	-10.276677131652832
▁expedition	-10.277631759643555
▁classic	-10.277737617492676
▁equi	-10.277746200561523
▁olympic	-10.278106689453125
▁narrative	-10.278881072998047
▁fifth	-10.279067993164062
▁accused	-10.280041694641113
▁explanation	-10.28193473815918
▁employment	-10.282520294189453
▁guest	-10.283346176147461
▁barb	-10.283352851867676
▁attraction	-10.283555030822754
▁acknowledg	-10.283852577209473
▁suspect	-10.284332275390625
▁dish	-10.284582138061523
▁coat	-10.284912109375
▁residential	-10.285293579101562
▁afford	-10.285338401794434
▁colonies	-10.285539627075195
▁champion	-10.286558151245117
▁alexander	-10.286737442016602
active	-10.286772727966309
▁alongside	-10.287229537963867
▁bou	-10.287362098693848
▁musicians	-10.287371635437012
▁client	-10.287985801696777
▁societies	-10.288183212280273
▁adam	-10.288363456726074
▁singer	-10.288543701171875
▁conventional	-10.289962768554688
▁arrival	-10.290597915649414
play	-10.290600776672363
▁resolution	-10.291081428527832
▁fossil	-10.291573524475098
▁talent	-10.291618347167969
▁brook	-10.292737007141113
▁assert	-10.29293155670166
▁controversy	-10.293017387390137
▁attributed	-10.293983459472656
▁replace	-10.294215202331543
▁chronic	-10.294472694396973
▁loop	-10.2947998046875
▁captain	-10.294962882995605
▁immediate	-10.295097351074219
▁fiber	-10.297260284423828
▁participant	-10.29787540435791
▁gil	-10.298280715942383
▁indeed	-10.298441886901855
▁disrupt	-10.298851013183594
▁lincoln	-10.299338340759277
▁worldwide	-10.300321578979492
▁fame	-10.302762031555176
born	-10.302923202514648
▁democracy	-10.303736686706543
▁legislative	-10.303736686706543
▁clothing	-10.303759574890137
▁championship	-10.303921699523926
▁absence	-10.30478572845459
▁dominated	-10.305147171020508
▁assigned	-10.305268287658691
▁assistance	-10.306344032287598
▁valid	-10.306819915771484
▁childhood	-10.307406425476074
▁columbia	-10.309139251708984
fall	-10.309715270996094
down	-10.31007194519043
▁false	-10.311136245727539
▁psycho	-10.311334609985352
▁inhabit	-10.31257152557373
▁assumed	-10.3134765625
▁electricity	-10.314133644104004
▁alleged	-10.31415843963623
▁suitable	-10.314702987670898
▁barrier	-10.315624237060547
▁introduction	-10.315921783447266
▁rabbi	-10.316761016845703
▁pennsylvania	-10.31804370880127
▁structural	-10.31804370880127
▁suppress	-10.31804370880127
▁rebel	-10.3182373046875
itis	-10.318461418151855
▁intense	-10.319124221801758
▁jesus	-10.319257736206055
titut	-10.3230619430542
worth	-10.323305130004883
▁dense	-10.323323249816895
▁elsewhere	-10.323524475097656
▁bath	-10.323535919189453
▁philip	-10.324173927307129
▁threatened	-10.325547218322754
▁moderate	-10.325845718383789
▁perceived	-10.32602596282959
▁citizen	-10.32784652709961
▁terror	-10.328039169311523
▁influential	-10.328533172607422
▁intervention	-10.328533172607422
▁politician	-10.329538345336914
▁illness	-10.329595565795898
▁proof	-10.330561637878418
▁lens	-10.331415176391602
▁trigger	-10.33155632019043
ographic	-10.333256721496582
▁residence	-10.334073066711426
▁stability	-10.3344144821167
▁reinforce	-10.335587501525879
▁yu	-10.335609436035156
onym	-10.336176872253418
▁wage	-10.336668968200684
▁acquired	-10.336865425109863
▁consume	-10.337218284606934
▁possession	-10.337336540222168
▁doubt	-10.338174819946289
▁santa	-10.339500427246094
▁violent	-10.339644432067871
▁regulate	-10.339695930480957
▁yield	-10.340149879455566
▁entrance	-10.340657234191895
▁membrane	-10.340657234191895
▁elevation	-10.340659141540527
▁filter	-10.340665817260742
▁divide	-10.341647148132324
▁habit	-10.341667175292969
▁magazine	-10.342184066772461
▁depth	-10.342729568481445
▁underground	-10.34313678741455
▁depart	-10.34318733215332
▁ohio	-10.343505859375
▁disagree	-10.343713760375977
▁johnson	-10.344124794006348
▁putting	-10.34455394744873
▁accompanied	-10.346263885498047
▁resort	-10.346297264099121
▁marsh	-10.347515106201172
▁stadium	-10.348834991455078
▁gang	-10.348876953125
▁extinct	-10.350362777709961
▁persist	-10.350403785705566
▁vector	-10.350878715515137
fish	-10.351469993591309
▁reconstruct	-10.351903915405273
▁neighbour	-10.353445053100586
▁vertical	-10.35361099243164
▁georgia	-10.354475975036621
▁incredible	-10.354475975036621
char	-10.355207443237305
▁rising	-10.355666160583496
▁concrete	-10.356022834777832
▁ottoman	-10.356538772583008
▁composer	-10.356572151184082
▁deploy	-10.359124183654785
▁furthermo	-10.359130859375
▁prompt	-10.359354972839355
▁undergo	-10.36078929901123
ancy	-10.361530303955078
▁sensor	-10.362289428710938
▁basketball	-10.362754821777344
▁category	-10.363274574279785
▁trait	-10.363435745239258
▁attitude	-10.364315032958984
▁conclusion	-10.364835739135742
▁efficiency	-10.364835739135742
▁complicated	-10.364836692810059
▁preferred	-10.36565113067627
▁winning	-10.36604118347168
▁maintenance	-10.366399765014648
▁resolve	-10.366403579711914
▁harvest	-10.366427421569824
▁carolina	-10.366921424865723
▁enforcement	-10.366955757141113
▁experimental	-10.367586135864258
▁philosopher	-10.368487358093262
▁designated	-10.368979454040527
▁terrain	-10.369011878967285
▁permit	-10.371172904968262
▁familiar	-10.371627807617188
▁panel	-10.371878623962402
▁wales	-10.37199592590332
▁negotiation	-10.372152328491211
▁hydr	-10.373458862304688
▁settle	-10.373740196228027
▁prayer	-10.373781204223633
▁execution	-10.374778747558594
▁senator	-10.375325202941895
▁bible	-10.375631332397461
▁carrier	-10.375947952270508
▁taste	-10.376022338867188
▁buck	-10.376260757446289
▁cheap	-10.376882553100586
▁please	-10.376888275146484
▁pine	-10.377500534057617
▁complain	-10.377946853637695
▁translation	-10.37795639038086
▁weapon	-10.378564834594727
▁fix	-10.378893852233887
▁mutual	-10.379565238952637
▁inhabitants	-10.38007640838623
▁knight	-10.38111686706543
▁wildlife	-10.381638526916504
▁tournament	-10.381640434265137
▁sight	-10.382491111755371
▁sacrifice	-10.382698059082031
▁injury	-10.383785247802734
▁advise	-10.38391399383545
▁ranch	-10.38526439666748
▁simultaneous	-10.386414527893066
▁descend	-10.38692569732666
▁racial	-10.387007713317871
▁resign	-10.387110710144043
▁migration	-10.387480735778809
▁mixture	-10.387730598449707
▁kha	-10.387957572937012
▁ministry	-10.38854694366455
▁self	-10.389373779296875
▁framework	-10.390815734863281
▁segment	-10.391227722167969
▁trick	-10.392718315124512
▁blind	-10.393909454345703
▁bought	-10.394989967346191
▁modified	-10.396056175231934
▁clinical	-10.396066665649414
▁toxic	-10.39653491973877
▁emphasize	-10.396576881408691
▁graphic	-10.396677017211914
▁jazz	-10.397003173828125
▁bias	-10.397374153137207
▁assumption	-10.398189544677734
▁tropical	-10.39819049835205
▁communicate	-10.399267196655273
▁netherlands	-10.399267196655273
▁theoretical	-10.400351524353027
▁explicit	-10.401966094970703
ddle	-10.402595520019531
▁vaccine	-10.403048515319824
▁dismiss	-10.403059005737305
▁verb	-10.403077125549316
▁journal	-10.403118133544922
▁dropped	-10.403285026550293
▁minority	-10.404775619506836
▁danger	-10.405268669128418
▁tight	-10.407052040100098
▁perception	-10.407383918762207
▁hardware	-10.407389640808105
▁audio	-10.407689094543457
▁holiday	-10.40847110748291
▁copper	-10.408487319946289
▁rotation	-10.40869426727295
▁mediterranean	-10.409015655517578
▁arrive	-10.409957885742188
▁harbor	-10.410102844238281
▁temper	-10.410116195678711
▁atoms	-10.410243034362793
▁psychology	-10.410649299621582
▁continent	-10.41100788116455
▁relief	-10.411200523376465
▁maxim	-10.411336898803711
▁interfere	-10.411396980285645
▁venue	-10.413454055786133
▁competitive	-10.414472579956055
▁fold	-10.41485595703125
▁favorite	-10.415172576904297
▁fled	-10.41571044921875
▁transferred	-10.415921211242676
▁caught	-10.416131973266602
▁precipitation	-10.41666316986084
▁sponsor	-10.416666030883789
▁vital	-10.416706085205078
▁persian	-10.417071342468262
▁fragment	-10.418312072753906
▁divine	-10.418367385864258
▁asset	-10.418533325195312
▁progressive	-10.420036315917969
▁herself	-10.420510292053223
▁steve	-10.420760154724121
▁airline	-10.420798301696777
▁margin	-10.421632766723633
▁victor	-10.42200756072998
▁ecosystem	-10.422714233398438
▁telephone	-10.422788619995117
▁editor	-10.423274040222168
▁isolated	-10.423376083374023
▁chip	-10.424422264099121
▁surgery	-10.425479888916016
▁norman	-10.426098823547363
▁ratio	-10.426736831665039
▁bern	-10.427597045898438
▁zealand	-10.427693367004395
▁laboratory	-10.42786979675293
▁mirror	-10.42824649810791
▁classified	-10.428576469421387
▁losing	-10.43017292022705
▁lung	-10.430994033813477
▁receiving	-10.431024551391602
▁fox	-10.431087493896484
▁celebration	-10.431580543518066
▁molecular	-10.431580543518066
▁payment	-10.432233810424805
▁ownership	-10.433055877685547
▁shield	-10.43382453918457
▁arise	-10.43440055847168
▁duties	-10.43443489074707
▁brick	-10.435633659362793
▁elizabeth	-10.436044692993164
▁thermal	-10.436102867126465
▁emission	-10.436169624328613
direct	-10.436375617980957
▁athletic	-10.436603546142578
▁urge	-10.436759948730469
▁coffee	-10.437163352966309
▁agencies	-10.43717098236084
▁mainland	-10.437423706054688
▁audit	-10.438203811645508
▁civilization	-10.439526557922363
▁temporary	-10.43996524810791
▁sweet	-10.439969062805176
▁cognitive	-10.440526962280273
▁evil	-10.440549850463867
▁abstract	-10.441651344299316
▁predominant	-10.441652297973633
▁manipulat	-10.442214012145996
▁athlete	-10.442215919494629
▁goddess	-10.443963050842285
▁rhythm	-10.445594787597656
▁sediment	-10.446163177490234
▁ourselves	-10.446723937988281
▁ceremony	-10.44728946685791
▁predator	-10.447545051574707
▁chest	-10.448887825012207
▁ancestor	-10.45012378692627
▁brazil	-10.451258659362793
▁legislature	-10.451823234558105
▁recognis	-10.451823234558105
▁golf	-10.451895713806152
▁nice	-10.452033042907715
▁ensu	-10.452326774597168
▁cemetery	-10.452961921691895
▁morph	-10.453146934509277
▁elite	-10.454233169555664
▁routine	-10.455240249633789
type	-10.45560359954834
▁denied	-10.457097053527832
▁cancel	-10.457619667053223
▁minimum	-10.45809268951416
▁shopping	-10.459521293640137
▁architect	-10.460168838500977
▁strange	-10.460563659667969
▁membership	-10.460760116577148
▁regardless	-10.460887908935547
▁napoleon	-10.460953712463379
▁sick	-10.461664199829102
▁francisco	-10.4621000289917
▁confront	-10.462114334106445
▁jim	-10.462419509887695
▁algebra	-10.463251113891602
▁assume	-10.463484764099121
▁byzantine	-10.463823318481445
▁confederate	-10.463823318481445
▁slope	-10.464003562927246
▁transformation	-10.465194702148438
▁linguistic	-10.46612548828125
▁literally	-10.466126441955566
▁chlor	-10.466704368591309
▁boot	-10.466988563537598
▁zi	-10.467480659484863
▁podcast	-10.467857360839844
▁praise	-10.469648361206055
▁implementation	-10.4701509475708
▁greece	-10.470172882080078
▁swimming	-10.47018051147461
▁geographical	-10.470624923706055
▁slavery	-10.470778465270996
▁comparison	-10.471324920654297
▁guarantee	-10.471324920654297
▁phenomenon	-10.471324920654297
▁investigate	-10.471928596496582
▁protocol	-10.474806785583496
▁cluster	-10.474807739257812
▁infant	-10.475578308105469
▁enormous	-10.475969314575195
▁pollution	-10.475971221923828
▁spectrum	-10.477133750915527
▁twelve	-10.478302955627441
▁piano	-10.478360176086426
▁medal	-10.478703498840332
▁dozen	-10.48009967803955
▁surviving	-10.480635643005371
▁shelter	-10.481244087219238
▁appointment	-10.481795310974121
▁chemistry	-10.485323905944824
▁poison	-10.487095832824707
▁smoke	-10.48719596862793
▁specialized	-10.48794937133789
▁exhaust	-10.488265037536621
▁lawyer	-10.48861026763916
▁biology	-10.488670349121094
▁continuing	-10.48885440826416
▁voltage	-10.488861083984375
▁strengthen	-10.48996353149414
▁ordinary	-10.491806030273438
▁supplement	-10.491806030273438
▁absolute	-10.492199897766113
▁democrat	-10.493087768554688
▁enzyme	-10.494173049926758
▁personnel	-10.494805335998535
▁replica	-10.494908332824707
▁align	-10.495502471923828
▁outdoor	-10.497751235961914
▁cavalry	-10.498926162719727
▁iraq	-10.498931884765625
▁artistic	-10.499611854553223
▁underlying	-10.500184059143066
▁varied	-10.500748634338379
▁punishment	-10.501310348510742
▁siege	-10.501352310180664
▁facing	-10.501437187194824
▁magnet	-10.501489639282227
▁facilitate	-10.501906394958496
▁ongoing	-10.502900123596191
▁optical	-10.503135681152344
maker	-10.503262519836426
▁smooth	-10.503700256347656
▁drew	-10.503756523132324
▁scottish	-10.504532814025879
▁bigger	-10.504982948303223
▁distinctive	-10.507607460021973
▁albert	-10.508441925048828
▁sphere	-10.508512496948242
▁constitute	-10.508514404296875
▁weekend	-10.508842468261719
▁crypt	-10.509102821350098
▁preparation	-10.509103775024414
▁truck	-10.509790420532227
▁inflation	-10.511588096618652
▁presidential	-10.513335227966309
▁syria	-10.513891220092773
▁calendar	-10.515131950378418
▁consciousness	-10.515987396240234
▁chu	-10.516524314880371
▁categories	-10.517555236816406
▁disaster	-10.517581939697266
▁rush	-10.518019676208496
▁afterwards	-10.518072128295898
▁ji	-10.51930046081543
▁exile	-10.520051002502441
▁render	-10.520133972167969
▁relevant	-10.520593643188477
▁sculpture	-10.520593643188477
physi	-10.52072811126709
▁classification	-10.521230697631836
▁patent	-10.521347045898438
▁fault	-10.522514343261719
▁beauty	-10.523039817810059
▁nomination	-10.523063659667969
▁bush	-10.523154258728027
▁colleague	-10.523639678955078
▁bronze	-10.524863243103027
print	-10.525909423828125
▁archaeological	-10.526084899902344
▁accessible	-10.528179168701172
▁wake	-10.528570175170898
▁behaviour	-10.52914810180664
▁october	-10.529762268066406
▁vulnerable	-10.529762268066406
▁immune	-10.529767036437988
▁spell	-10.529897689819336
▁sacred	-10.530389785766602
▁conquest	-10.531611442565918
▁medication	-10.531627655029297
▁coordinate	-10.532822608947754
▁ingredient	-10.535304069519043
▁bureau	-10.535320281982422
▁september	-10.536540031433105
▁surrender	-10.536540031433105
▁variant	-10.536545753479004
▁warfare	-10.536552429199219
▁percentage	-10.537248611450195
▁pakistan	-10.537776947021484
▁axis	-10.53804874420166
▁nervous	-10.538395881652832
▁honour	-10.538402557373047
▁welcome	-10.539021492004395
▁twin	-10.539607048034668
▁corporate	-10.53963565826416
▁odd	-10.53982162475586
▁hypothesis	-10.540255546569824
aya	-10.540486335754395
▁obvious	-10.540858268737793
▁identical	-10.540877342224121
▁entry	-10.541548728942871
▁timber	-10.541987419128418
▁scott	-10.542634010314941
▁homo	-10.543806076049805
▁renaissance	-10.543986320495605
▁armies	-10.544666290283203
▁voting	-10.544913291931152
▁eagle	-10.545243263244629
▁permitted	-10.545912742614746
▁significance	-10.546480178833008
▁nerve	-10.546533584594727
▁recall	-10.546625137329102
mouth	-10.547500610351562
▁rebellion	-10.547734260559082
▁resource	-10.548139572143555
▁boston	-10.548898696899414
▁suicide	-10.548983573913574
▁infantry	-10.55034351348877
▁exclud	-10.552116394042969
▁assault	-10.553373336791992
▁fabric	-10.553375244140625
▁separation	-10.553376197814941
▁whale	-10.553389549255371
▁navigation	-10.554001808166504
▁infinite	-10.55401611328125
▁examine	-10.55463981628418
▁cutting	-10.555093765258789
▁philosophical	-10.55526065826416
▁expense	-10.555267333984375
▁excited	-10.555892944335938
▁burial	-10.556535720825195
▁rainfall	-10.556605339050293
▁manuscript	-10.558416366577148
▁plateau	-10.558724403381348
▁commitment	-10.559050559997559
▁removal	-10.559680938720703
▁achievement	-10.560441970825195
▁pose	-10.560480117797852
▁shipping	-10.561040878295898
▁hind	-10.56258487701416
▁manifest	-10.564119338989258
▁commerce	-10.564128875732422
▁privilege	-10.564754486083984
▁theorem	-10.565750122070312
▁lifetime	-10.566366195678711
▁insurance	-10.566671371459961
▁honest	-10.566699028015137
▁conquer	-10.566774368286133
▁reservoir	-10.569215774536133
▁crash	-10.569677352905273
▁sensitive	-10.569854736328125
▁initiative	-10.570494651794434
▁chapter	-10.570507049560547
▁restrictions	-10.570659637451172
▁interface	-10.571136474609375
▁missouri	-10.572415351867676
▁confidence	-10.5730562210083
▁amendment	-10.573057174682617
▁associate	-10.574604034423828
▁nutrient	-10.577554702758789
▁empty	-10.577564239501953
▁erect	-10.577627182006836
▁portuguese	-10.579488754272461
▁knock	-10.57949447631836
▁currency	-10.580135345458984
▁buddhist	-10.580780982971191
▁sharing	-10.581441879272461
▁computation	-10.582080841064453
▁norway	-10.583348274230957
▁defensive	-10.584016799926758
▁diplomatic	-10.58449935913086
▁hired	-10.584797859191895
▁anxiety	-10.585963249206543
▁artillery	-10.585963249206543
▁ruling	-10.587596893310547
▁christmas	-10.587998390197754
▁vegetable	-10.589868545532227
▁approval	-10.590520858764648
▁entrepreneur	-10.591174125671387
▁mcc	-10.591730117797852
▁phenomena	-10.591826438903809
▁architectural	-10.59183120727539
▁feedback	-10.591968536376953
▁invade	-10.592400550842285
▁berlin	-10.59265422821045
▁winner	-10.592788696289062
▁probability	-10.593137741088867
▁nobody	-10.593791007995605
▁quantities	-10.595100402832031
▁clark	-10.595291137695312
▁comprise	-10.595410346984863
▁flee	-10.595712661743164
▁edition	-10.596318244934082
▁gravity	-10.597075462341309
fold	-10.597358703613281
▁persuade	-10.597724914550781
▁highlight	-10.599871635437012
▁aggressive	-10.600357055664062
▁prepare	-10.600847244262695
▁singing	-10.601359367370605
▁appreciate	-10.602996826171875
▁precede	-10.603364944458008
▁lecture	-10.603668212890625
▁veteran	-10.60432243347168
▁inhibit	-10.606310844421387
▁elaborate	-10.607632637023926
▁premier	-10.607654571533203
▁invention	-10.608963012695312
▁apartment	-10.611091613769531
▁journalist	-10.612200736999512
▁survival	-10.612957000732422
▁mexican	-10.614960670471191
▁sword	-10.614960670471191
▁mechanics	-10.615629196166992
▁sweden	-10.615631103515625
▁index	-10.615880012512207
▁crazy	-10.617645263671875
▁loose	-10.618311882019043
▁chapel	-10.618325233459473
▁cinema	-10.619853973388672
▁drama	-10.620659828186035
▁voters	-10.62218189239502
▁mask	-10.624747276306152
▁induce	-10.624828338623047
▁statistics	-10.625718116760254
▁borrow	-10.625722885131836
▁stood	-10.626327514648438
▁jefferson	-10.62639331817627
▁diamond	-10.62707805633545
▁enforce	-10.631773948669434
▁conversion	-10.632502555847168
▁scout	-10.635117530822754
▁missile	-10.635974884033203
▁evolutionary	-10.635982513427734
▁physician	-10.636590957641602
▁assassin	-10.638642311096191
▁attribute	-10.638647079467773
▁cliff	-10.638824462890625
▁judicial	-10.640012741088867
▁dissolve	-10.64069938659668
▁crucial	-10.640710830688477
▁array	-10.640724182128906
ground	-10.640783309936523
▁chairman	-10.641313552856445
▁deliberate	-10.642072677612305
▁lewis	-10.642216682434082
▁replacement	-10.642415046691895
▁hidden	-10.642767906188965
front	-10.643094062805176
▁combine	-10.64417839050293
▁scholar	-10.644489288330078
▁racing	-10.645113945007324
▁remind	-10.645343780517578
▁consent	-10.645811080932617
▁abbey	-10.646916389465332
▁raising	-10.646971702575684
▁taiwan	-10.648274421691895
▁cuisine	-10.648276329040527
▁bottle	-10.648452758789062
▁email	-10.648985862731934
▁frederick	-10.651737213134766
▁coalition	-10.652711868286133
▁begun	-10.653389930725098
▁arrow	-10.65351390838623
▁condemn	-10.653820991516113
▁diagnosis	-10.655211448669434
▁interrupt	-10.655908584594727
▁teeth	-10.655933380126953
▁funeral	-10.65803050994873
▁worst	-10.660139083862305
▁gym	-10.662320137023926
▁warrior	-10.663662910461426
▁participation	-10.664302825927734
▁hollywood	-10.66430377960205
▁mainstream	-10.665708541870117
▁meanwhile	-10.665708541870117
▁atomic	-10.665986061096191
▁insert	-10.666240692138672
▁worn	-10.666511535644531
▁trauma	-10.666681289672852
▁altitude	-10.667820930480957
▁secular	-10.667825698852539
▁injuries	-10.667828559875488
▁unclear	-10.669234275817871
▁wolf	-10.671996116638184
▁horizontal	-10.672921180725098
▁oxford	-10.673479080200195
▁inspiration	-10.673480987548828
▁prospect	-10.674896240234375
▁velocity	-10.674896240234375
▁restoration	-10.674908638000488
▁enemies	-10.675606727600098
▁disturb	-10.675609588623047
▁nominated	-10.675613403320312
▁copies	-10.675628662109375
▁jerusalem	-10.677740097045898
▁matrix	-10.67845630645752
▁divorce	-10.679878234863281
▁bunch	-10.679926872253418
▁authentic	-10.680591583251953
▁sunday	-10.682034492492676
▁permission	-10.683221817016602
▁phrase	-10.684182167053223
▁integral	-10.685603141784668
▁wilson	-10.686165809631348
▁snake	-10.687769889831543
▁devoted	-10.687773704528809
▁proximity	-10.688477516174316
▁judgment	-10.689197540283203
▁steep	-10.690497398376465
▁float	-10.690646171569824
tropic	-10.690942764282227
▁offensive	-10.691361427307129
▁awareness	-10.691887855529785
▁enterprise	-10.692082405090332
▁attorney	-10.692085266113281
▁descendants	-10.69283676147461
▁tributary	-10.694975852966309
▁finite	-10.694998741149902
▁compromise	-10.695700645446777
▁decay	-10.69576358795166
▁examination	-10.698603630065918
▁unsuccessful	-10.699331283569336
▁adhere	-10.699870109558105
rrh	-10.699892044067383
▁anybody	-10.70005989074707
▁spacecraft	-10.700276374816895
▁tennis	-10.700984001159668
▁struck	-10.701519012451172
▁minimal	-10.70152759552002
▁negotiate	-10.702245712280273
▁promotion	-10.702247619628906
▁stephen	-10.707139015197754
▁varieties	-10.707365989685059
▁technological	-10.708100318908691
▁jones	-10.708568572998047
▁hitler	-10.708919525146484
▁hook	-10.710054397583008
▁dioxide	-10.710304260253906
▁inject	-10.711801528930664
▁villa	-10.712586402893066
▁harbour	-10.71325397491455
▁libraries	-10.7139892578125
▁interval	-10.7141695022583
▁contradict	-10.714727401733398
▁jordan	-10.714727401733398
▁appoint	-10.71505355834961
▁attach	-10.7152681350708
▁wedding	-10.717857360839844
omorph	-10.718119621276855
▁vegetation	-10.719170570373535
▁database	-10.719918251037598
count	-10.719944953918457
view	-10.720351219177246
▁advisor	-10.72140121459961
▁junior	-10.722891807556152
▁tobacco	-10.7236328125
▁arthur	-10.725900650024414
▁territorial	-10.726618766784668
▁creature	-10.72736930847168
▁illinois	-10.728116035461426
▁actress	-10.728228569030762
▁caesar	-10.728235244750977
▁congregation	-10.728864669799805
▁exceed	-10.728928565979004
▁nineteen	-10.730366706848145
▁quantity	-10.730367660522461
▁dinner	-10.730385780334473
▁pleasure	-10.731115341186523
▁informal	-10.73135757446289
▁provincial	-10.731866836547852
▁livestock	-10.734879493713379
▁confine	-10.735105514526367
▁sheriff	-10.735640525817871
▁philippine	-10.736387252807617
▁bulk	-10.73690414428711
▁alphabet	-10.737141609191895
▁incredibly	-10.739410400390625
▁ticket	-10.739419937133789
▁analyze	-10.7401704788208
▁vacuum	-10.740927696228027
▁requiring	-10.740928649902344
▁fraction	-10.741689682006836
▁hazard	-10.741690635681152
▁unemployment	-10.743204116821289
▁abandon	-10.743709564208984
▁profound	-10.743966102600098
▁anywhere	-10.744726181030273
▁binding	-10.744779586791992
▁commemorat	-10.746251106262207
▁exploration	-10.747013092041016
▁accuracy	-10.748539924621582
▁informed	-10.74985122680664
▁saving	-10.750187873840332
▁virgin	-10.75069522857666
▁hockey	-10.751602172851562
▁educated	-10.753135681152344
▁lifestyle	-10.75313663482666
▁reservation	-10.753149032592773
▁swedish	-10.756211280822754
▁corona	-10.756505012512207
▁overlap	-10.759223937988281
▁excellent	-10.759296417236328
▁incorporate	-10.759319305419922
▁descent	-10.759627342224121
▁crusade	-10.760181427001953
▁mongol	-10.760313987731934
▁junction	-10.762392044067383
▁heaven	-10.762410163879395
▁aviation	-10.762948989868164
▁alternate	-10.763286590576172
▁lyrics	-10.763969421386719
▁southeastern	-10.763980865478516
▁shallow	-10.766277313232422
▁commonwealth	-10.767051696777344
▁plus	-10.767585754394531
▁profile	-10.770183563232422
▁convey	-10.770281791687012
▁coincide	-10.771742820739746
▁geographic	-10.772180557250977
burn	-10.772323608398438
▁november	-10.772516250610352
▁legacy	-10.77252197265625
▁peasant	-10.773301124572754
▁dialogue	-10.774867057800293
▁shadow	-10.77566146850586
▁update	-10.776744842529297
▁distant	-10.777318000793457
▁fusion	-10.779149055480957
▁illustrate	-10.780374526977539
▁maritime	-10.780526161193848
▁enclos	-10.781168937683105
▁sultan	-10.781171798706055
▁coordinat	-10.781183242797852
▁compact	-10.782085418701172
▁circular	-10.783535957336426
▁invented	-10.783543586730957
▁advertising	-10.785120010375977
▁portrait	-10.785918235778809
▁indonesia	-10.785924911499023
▁behalf	-10.787500381469727
▁modification	-10.787518501281738
▁revolt	-10.789124488830566
▁encompass	-10.789888381958008
▁relax	-10.79231071472168
▁palestinian	-10.793078422546387
▁overcome	-10.793928146362305
▁utilize	-10.793933868408203
▁prussia	-10.794690132141113
▁boost	-10.797070503234863
▁wrap	-10.797127723693848
▁colorado	-10.79788875579834
▁fulfill	-10.798687934875488
▁nonetheless	-10.80029582977295
▁erosion	-10.800299644470215
▁flavor	-10.800308227539062
▁overseas	-10.800322532653809
▁strategies	-10.801100730895996
▁cardinal	-10.801117897033691
▁refuse	-10.802217483520508
▁abilities	-10.80353832244873
▁refine	-10.805438041687012
▁conscious	-10.805611610412598
▁oversee	-10.805723190307617
▁amateur	-10.805988311767578
▁anchor	-10.806133270263672
osphere	-10.806647300720215
▁immigration	-10.806755065917969
▁synthesis	-10.806755065917969
▁april	-10.807570457458496
▁converge	-10.807601928710938
▁reliable	-10.809222221374512
▁vowel	-10.810818672180176
▁tribal	-10.812479019165039
▁nurse	-10.81263542175293
▁explosive	-10.814072608947754
▁supplied	-10.814888954162598
▁abroad	-10.814900398254395
▁scholarship	-10.815923690795898
▁afghanistan	-10.816523551940918
▁limestone	-10.816524505615234
▁thereafter	-10.817344665527344
▁declaration	-10.818161010742188
▁improving	-10.818161010742188
▁orientation	-10.818161964416504
▁confusion	-10.81898021697998
▁discrimination	-10.81898021697998
▁triangle	-10.818982124328613
▁activist	-10.818987846374512
▁regulator	-10.819830894470215
▁delegate	-10.821456909179688
▁northeastern	-10.821479797363281
▁powder	-10.823092460632324
▁faculty	-10.823912620544434
▁clergy	-10.824736595153809
▁everywhere	-10.824736595153809
▁configuration	-10.827214241027832
▁nitrogen	-10.827214241027832
▁pregnancy	-10.827214241027832
▁impression	-10.828041076660156
▁circum	-10.828868865966797
▁swing	-10.830798149108887
▁jewel	-10.83203411102295
▁migrate	-10.833136558532715
▁equilibrium	-10.833850860595703
▁norwegian	-10.833850860595703
▁monetar	-10.834428787231445
▁diploma	-10.834897994995117
▁abundant	-10.835516929626465
▁displac	-10.838577270507812
▁geometry	-10.83885669708252
▁apollo	-10.839699745178223
▁tennessee	-10.84136962890625
▁philadelphia	-10.842207908630371
▁servant	-10.84221076965332
▁entity	-10.843127250671387
▁militia	-10.844732284545898
▁imposed	-10.844775199890137
▁collaboration	-10.845571517944336
▁motivation	-10.845571517944336
▁automatically	-10.847256660461426
▁assemble	-10.847267150878906
▁turkey	-10.848952293395996
▁discharge	-10.849799156188965
▁neutron	-10.850637435913086
▁populated	-10.851484298706055
▁gallery	-10.851490020751953
▁unfortunately	-10.852331161499023
▁google	-10.852334022521973
▁grammar	-10.852334022521973
▁explosion	-10.853178977966309
▁taylor	-10.854035377502441
▁inspect	-10.85403823852539
▁northwestern	-10.8540678024292
▁amphi	-10.855302810668945
▁adequate	-10.855728149414062
▁syndrome	-10.855728149414062
▁telescope	-10.855728149414062
▁consensus	-10.857430458068848
▁eleven	-10.857431411743164
▁injured	-10.857442855834961
▁competing	-10.85922908782959
▁octa	-10.85968017578125
▁fantastic	-10.859990119934082
▁welfare	-10.859990119934082
▁healthcare	-10.860004425048828
▁southwestern	-10.860026359558105
▁patrol	-10.860036849975586
▁lumber	-10.860858917236328
▁caribbean	-10.862556457519531
▁diminish	-10.86341381072998
▁embrace	-10.86341667175293
▁squad	-10.86514663696289
▁incentive	-10.865199089050293
▁transaction	-10.865989685058594
▁hawk	-10.866538047790527
▁drill	-10.866872787475586
▁gospel	-10.868572235107422
▁occupy	-10.86943244934082
▁hamilton	-10.8702974319458
▁volcanic	-10.871159553527832
▁instant	-10.871533393859863
▁confess	-10.872036933898926
▁plasma	-10.8723726272583
▁receptor	-10.872889518737793
▁stroke	-10.873762130737305
▁knee	-10.87553882598877
▁whenever	-10.875570297241211
craft	-10.875964164733887
▁featuring	-10.877224922180176
▁thirty	-10.878965377807617
▁hybrid	-10.87983512878418
▁identification	-10.879836082458496
▁submarine	-10.879837036132812
▁plum	-10.880516052246094
▁kansas	-10.880709648132324
▁inherent	-10.880765914916992
▁hebrew	-10.882454872131348
▁cricket	-10.882455825805664
▁signature	-10.88420581817627
▁bbc	-10.884241104125977
▁computing	-10.885119438171387
▁canyon	-10.886419296264648
▁somewhere	-10.887709617614746
▁scattered	-10.887713432312012
▁swim	-10.889552116394043
▁availability	-10.891229629516602
▁january	-10.892110824584961
▁accelerate	-10.892111778259277
▁bicycle	-10.892993927001953
▁everyday	-10.893905639648438
▁autonomous	-10.894761085510254
▁violation	-10.894790649414062
▁demographic	-10.896536827087402
▁amazon	-10.897418975830078
▁testament	-10.897429466247559
▁mandate	-10.898066520690918
▁stereo	-10.89908218383789
▁challenging	-10.89919376373291
▁intermediate	-10.89919376373291
▁obligation	-10.89919376373291
▁accommodate	-10.9000825881958
▁worry	-10.900100708007812
▁skull	-10.901863098144531
▁ultimate	-10.90257453918457
▁describing	-10.902753829956055
▁hudson	-10.902780532836914
▁biblical	-10.903646469116211
▁electoral	-10.903654098510742
▁beneath	-10.90366268157959
▁hormone	-10.904569625854492
▁happiness	-10.90811824798584
▁feather	-10.908138275146484
▁frequencies	-10.909913063049316
▁integration	-10.910811424255371
▁treasure	-10.911710739135742
▁tendency	-10.911713600158691
▁buddhism	-10.91261100769043
▁morris	-10.913207054138184
▁minnesota	-10.914413452148438
▁predecessor	-10.914413452148438
▁silicon	-10.914444923400879
▁emerging	-10.915321350097656
▁readily	-10.91538143157959
▁terminat	-10.915549278259277
▁electromagnetic	-10.91893482208252
▁wavelength	-10.919840812683105
▁pocket	-10.919849395751953
▁inscription	-10.919896125793457
▁removing	-10.920748710632324
▁promoting	-10.920750617980957
mount	-10.921377182006836
▁aesthetic	-10.921656608581543
▁profession	-10.922353744506836
▁cylinder	-10.922565460205078
▁kitchen	-10.926210403442383
▁bubble	-10.927129745483398
▁embryo	-10.930697441101074
▁evident	-10.930785179138184
▁flourish	-10.931702613830566
▁meditation	-10.931705474853516
▁nobility	-10.931705474853516
▁albania	-10.931713104248047
▁equipped	-10.933542251586914
▁applies	-10.933592796325684
▁pandemic	-10.934459686279297
▁fertile	-10.935393333435059
▁homosexual	-10.936301231384277
▁measuring	-10.936302185058594
▁binary	-10.936342239379883
▁costume	-10.936622619628906
▁believing	-10.938148498535156
▁federation	-10.938154220581055
▁hetero	-10.9387788772583
▁complement	-10.939085960388184
▁franchise	-10.939998626708984
▁overlook	-10.9399995803833
▁attain	-10.941150665283203
▁flank	-10.941961288452148
▁preservation	-10.943709373474121
▁affiliate	-10.944635391235352
▁judaism	-10.9446382522583
▁clinton	-10.945581436157227
▁revival	-10.946502685546875
▁december	-10.947428703308105
▁weird	-10.947760581970215
▁automobile	-10.94836139678955
▁competitor	-10.94836139678955
▁civic	-10.94839096069336
▁twentieth	-10.949295043945312
▁cambridge	-10.949296951293945
▁activate	-10.949448585510254
▁depot	-10.950379371643066
▁thrust	-10.95128345489502
▁roosevelt	-10.953977584838867
ologies	-10.954548835754395
▁arkansas	-10.956796646118164
▁confused	-10.956798553466797
▁distort	-10.957451820373535
▁intensity	-10.957748413085938
▁leather	-10.957755088806152
▁watershed	-10.958797454833984
▁hemisphere	-10.96056842803955
▁thorough	-10.960569381713867
▁somehow	-10.960596084594727
▁accumulate	-10.962459564208984
▁extraordinary	-10.963406562805176
▁alaska	-10.963420867919922
▁metaphor	-10.964356422424316
▁deputy	-10.96530532836914
▁tremendous	-10.966253280639648
▁counterpart	-10.968157768249512
▁antenna	-10.968192100524902
▁oklahoma	-10.969107627868652
▁chris	-10.969566345214844
▁inventor	-10.970071792602539
▁abundance	-10.971014976501465
▁casualties	-10.971014976501465
▁pursuit	-10.971014976501465
▁garrison	-10.97197151184082
oscopic	-10.97283935546875
▁delaware	-10.972926139831543
▁denomination	-10.973882675170898
▁atmospheric	-10.975799560546875
▁massachusetts	-10.975799560546875
▁friction	-10.975804328918457
▁demonstration	-10.977720260620117
▁criteria	-10.978683471679688
▁jacob	-10.978791236877441
▁manhattan	-10.979643821716309
▁obstacle	-10.979643821716309
▁adverse	-10.981575012207031
▁evaluate	-10.981616020202637
▁advertise	-10.982537269592285
▁buffalo	-10.982537269592285
▁cartoon	-10.982568740844727
▁terrible	-10.984471321105957
▁fortune	-10.984556198120117
▁thread	-10.985448837280273
▁admire	-10.985474586486816
▁fifteen	-10.987377166748047
▁virtue	-10.987377166748047
▁rifle	-10.987548828125
▁enthusiast	-10.988348007202148
▁legitimate	-10.988348007202148
▁rugby	-10.988349914550781
▁collision	-10.988351821899414
▁saxon	-10.988367080688477
▁ceremonies	-10.989319801330566
▁prairie	-10.989323616027832
▁entities	-10.989349365234375
▁guidance	-10.992241859436035
▁drift	-10.993220329284668
▁drove	-10.993494987487793
▁synthetic	-10.996149063110352
▁vapor	-10.996176719665527
▁cousin	-10.996198654174805
▁rigid	-10.99715518951416
▁capabilities	-10.998108863830566
▁scientist	-10.998799324035645
▁sophisticated	-10.999090194702148
▁moscow	-11.001056671142578
bridge	-11.001825332641602
▁stimulate	-11.004011154174805
▁comprehensive	-11.004999160766602
▁hawaii	-11.00500202178955
▁statute	-11.00500774383545
▁glacier	-11.005020141601562
▁ghost	-11.00599193572998
▁pulse	-11.006165504455566
▁counsel	-11.006976127624512
▁douglas	-11.006976127624512
▁chicken	-11.006982803344727
▁gothic	-11.008011817932129
▁scenario	-11.008956909179688
▁armenia	-11.009621620178223
▁earthquake	-11.009949684143066
▁saturday	-11.009949684143066
writer	-11.011716842651367
▁papal	-11.012014389038086
▁blank	-11.012174606323242
▁utility	-11.012934684753418
▁indicating	-11.013002395629883
▁furniture	-11.013927459716797
▁initiated	-11.014925003051758
▁striking	-11.015924453735352
▁antibiotic	-11.016921043395996
▁contributing	-11.018922805786133
▁decorated	-11.01992416381836
▁remnant	-11.01992416381836
▁calcium	-11.021934509277344
▁censor	-11.022943496704102
▁autonomy	-11.023942947387695
▁marshall	-11.023957252502441
▁dancing	-11.023998260498047
▁placing	-11.026060104370117
▁archbishop	-11.027976989746094
▁gravitational	-11.027976989746094
▁meteor	-11.028071403503418
▁temporarily	-11.028987884521484
▁module	-11.029000282287598
▁minimize	-11.031027793884277
▁skate	-11.031490325927734
▁fifty	-11.032036781311035
▁regain	-11.032073020935059
▁afraid	-11.033042907714844
▁ceremonial	-11.033042907714844
▁chromosome	-11.033042907714844
▁magnitude	-11.033042907714844
escence	-11.033500671386719
▁disadvantage	-11.034058570861816
▁elevated	-11.034059524536133
▁impressed	-11.03406047821045
▁brigade	-11.034062385559082
▁louisiana	-11.034062385559082
▁rebuild	-11.036094665527344
group	-11.037001609802246
▁wisdom	-11.037115097045898
▁derivative	-11.038134574890137
▁prophet	-11.038381576538086
▁nutrition	-11.039155960083008
▁opposing	-11.039156913757324
▁lunar	-11.03925609588623
borough	-11.04098892211914
▁elephant	-11.0412015914917
▁reluctant	-11.042226791381836
▁irregular	-11.043251991271973
▁prevail	-11.043258666992188
▁intelligent	-11.045306205749512
▁acoustic	-11.045307159423828
▁tribute	-11.046338081359863
▁completion	-11.046344757080078
▁assignment	-11.046346664428711
▁daniel	-11.047403335571289
▁welsh	-11.047457695007324
▁gentle	-11.048669815063477
▁worried	-11.04942798614502
▁exciting	-11.049431800842285
▁defining	-11.05055046081543
▁barrel	-11.051897048950195
▁bulgaria	-11.052530288696289
▁pregnant	-11.052531242370605
▁economist	-11.053566932678223
▁february	-11.054604530334473
▁sierra	-11.055665969848633
▁practitioner	-11.056681632995605
▁martial	-11.056729316711426
responsibilities	-11.057723045349121
▁sacrament	-11.057723045349121
▁ambassador	-11.058764457702637
▁mercury	-11.058767318725586
▁likewise	-11.058778762817383
▁kentucky	-11.059806823730469
▁companion	-11.060876846313477
▁kennedy	-11.061897277832031
▁baptist	-11.061901092529297
▁afternoon	-11.061938285827637
▁pearl	-11.062582015991211
▁comparative	-11.062944412231445
▁entertain	-11.063270568847656
▁renamed	-11.063996315002441
▁constituent	-11.06503677368164
▁qualities	-11.065040588378906
▁dominate	-11.06624698638916
▁economies	-11.067136764526367
▁wisconsin	-11.067136764526367
▁inevitabl	-11.067151069641113
▁embedded	-11.068188667297363
▁retirement	-11.068188667297363
▁patriot	-11.069317817687988
▁sperm	-11.069629669189453
▁turtle	-11.070382118225098
▁massacre	-11.071366310119629
▁beneficial	-11.07346248626709
▁prosperity	-11.0745210647583
▁enact	-11.075257301330566
▁accompany	-11.075580596923828
▁enroll	-11.075592041015625
piece	-11.076437950134277
▁administrator	-11.077702522277832
▁unexpected	-11.077702522277832
▁overwhelming	-11.078765869140625
▁flexible	-11.079829216003418
▁mortality	-11.079830169677734
▁propaganda	-11.080893516540527
▁primitive	-11.080894470214844
▁surprising	-11.080894470214844
▁neglect	-11.08195972442627
▁survivor	-11.083026885986328
▁lawrence	-11.085186958312988
▁synthesize	-11.092684745788574
▁resume	-11.092974662780762
▁substitute	-11.093774795532227
▁arguing	-11.09487247467041
▁diagram	-11.095926284790039
▁orleans	-11.097021102905273
▁analytic	-11.098094940185547
▁manchester	-11.099175453186035
▁sanction	-11.0991849899292
▁decisive	-11.100260734558105
▁endorse	-11.100454330444336
▁turkish	-11.102437019348145
▁turbine	-11.103527069091797
▁sulfur	-11.104615211486816
▁steady	-11.104621887207031
▁constantinople	-11.105706214904785
▁confident	-11.106799125671387
▁hierarchy	-11.106799125671387
▁reproduction	-11.106799125671387
▁witch	-11.106940269470215
▁telecommunicati	-11.107892990112305
▁acquisition	-11.108988761901855
▁insufficient	-11.110084533691406
▁lawsuit	-11.110090255737305
▁glucose	-11.11118221282959
▁consonant	-11.111189842224121
▁workshop	-11.111215591430664
▁madison	-11.113386154174805
▁insulat	-11.113478660583496
▁speculation	-11.11448860168457
▁consolidate	-11.116689682006836
▁patriarch	-11.116689682006836
▁presidency	-11.116689682006836
▁narrat	-11.11721420288086
▁migrant	-11.11779499053955
▁detroit	-11.12001895904541
▁pseudo	-11.120145797729492
▁abnormal	-11.121115684509277
▁distract	-11.121123313903809
▁relating	-11.121191024780273
▁swiss	-11.122245788574219
▁helicopter	-11.123337745666504
▁autumn	-11.12445068359375
▁houston	-11.124458312988281
▁acquire	-11.126094818115234
▁replacing	-11.126678466796875
▁pilgrim	-11.127795219421387
▁memories	-11.127800941467285
▁pupil	-11.127823829650879
▁experiencing	-11.131150245666504
▁offspring	-11.131150245666504
▁treasury	-11.131150245666504
▁soccer	-11.13115119934082
▁choosing	-11.132288932800293
▁monastery	-11.133393287658691
▁stomach	-11.133398056030273
▁imprisoned	-11.134516716003418
▁surround	-11.135379791259766
chemical	-11.135453224182129
▁rebuilt	-11.135642051696777
▁constraints	-11.136768341064453
▁lieutenant	-11.136768341064453
▁cultivation	-11.13676929473877
▁privacy	-11.137895584106445
▁genuine	-11.137898445129395
▁irrigation	-11.139023780822754
▁empirical	-11.139026641845703
▁respirator	-11.140159606933594
▁comparable	-11.142426490783691
▁microsoft	-11.14582347869873
▁continual	-11.145824432373047
▁unconscious	-11.146961212158203
▁battery	-11.146970748901367
zhou	-11.148962020874023
▁skeptic	-11.149239540100098
▁hurricane	-11.150381088256836
▁pedestrian	-11.150381088256836
▁twitter	-11.15152645111084
▁celtic	-11.152691841125488
▁spear	-11.152709007263184
▁upgrade	-11.152721405029297
▁correlate	-11.15381908416748
▁absorption	-11.157258033752441
▁connecticut	-11.157259941101074
▁sketch	-11.159562110900879
▁latitude	-11.160714149475098
▁thirteen	-11.161869049072266
▁creativity	-11.16302490234375
▁prototype	-11.16302490234375
